memory_initialization_radix=16;
memory_initialization_vector=
ED9BF83409ADFC3E031DF0E7F9D2FE09FD0D,
FBA2FE37FBCAFA5302BCF45204AC0563008A,
F861FD310214EC9D116BF6200208EDCDF946,
F44CFB01FFB60344F78DF7DCF3D604930105,
F84CFB2C0099F77905BCF2BBF9270B58F700,
FB06063204F6FFF2EC17F0F7F6A2EBA5E753,
0146F183FF0AF78FF885F2D2F5FC09EBE846,
FCAFFDEE01A6047F054A0DD5EA19D990EFDD,
06F6022E0A57033BFC69FAA5F653FB6DF4A7,
F121020E0574F680028108F205F4F76102A7,
FC68016F040701D3071FFC0DECEF01530406,
F21EFF660130FF120034FFF0F0FC082100D0,
009CF631EFD401FB0844F20E072207E0FEAB,
F3DEFB23009DF8BD009E03500639017A042D,
01E8FFD9FE03EDB8F2210A4D0C9E02690459,
052DFE04FBC105DFFDE1FE2E00890030FF32,
FBB30945EF2700F5F6C7076E28FFFC36F00E,
FE17F4B4097E036605C1F8C40F5C07CCFB3C,
E97A032BFCD90C5712150C8C0BB40684F18A,
F9C4EDF900E0F9FE01290364F3ED0053F913,
FB56011AFD8DFE05F85CFCF308CEEE1205CA,
0555F58109A20EB2FD21076601A400390229,
0440001000E5085F0584FF4EF341054D0067,
F6EB070407BCFE490340069FF820F52008DC,
009506AE036CF816F956FF33FAC1F896FFD2,
065D013AF49207E00DB8F31BF4C605A4FCED,
041F030FF5C6F42DFD5D0CB7FD34FD890C6E,
0037FFCB018BFE3004AEFE30F205F7A5FBF3,
FB05FC1AF5B90A440075F9E20BDFF69700DF,
F61F01A300660819FDF8FD56038000BC0A6F,
0A6407840168079BF66E0057FD1BEBFFF860,
F7F2F2B5FF64F8EB0063F27EF8B4E8DC063A,
EEC5F85B0443FE740024F969FD2FF6D00109,
012AFDF009EC0A6600E3FD9C0163FFD6FA98,
FB490189FAC606BE012CEFEDF70F079EFD95,
01B902B4F8E70267FB4F0441F0AAFF21F423,
FD1FF5EC042AF5CDF0B6ED90FEF2074A066F,
F4EF251E2239FFF80121F4B404A6F738F58F,
0E7FFB570554036EFDC0F2DF00A4F6A70357,
FE3C020AEAA606100225FB120704FEF2F4A8,
0218FC24F185FD1A0B02FA07048FF89F01CF,
F8C206AEFCF805D2FB3EF3690597F90C00BC,
0D8DF49DF473F979FAD9FD6100E6FD26F85D,
FDFF026E05CBFF81FC1FF7C7029C0678F353,
07150086F7B4042D0A1BF494FD7B00A102AC,
0501FD8100D2EFB5FB2300E4043A056D08D2,
FAE4FF62FDE70321F18DF5D90995F4A6F348,
04BC0805FEB4F2DE0646FF86E839095F0351,
F9DC017F0160F33FF5C1F80EF848044FF641,
FF3EE5A600B9086D06B1022EFBCEFCE8098D,
FE07FBBB086CF5D8F8ABFE5002DD06550081,
0828F513010CF4300002F8DC0308EBEDE767,
06DCFDDF07A1F9B101AF002F0578026D09C4,
FDE4FCCC0905036704220792075A0B8D0418,
02FFF6CD131D01F6FE00F59FF559F561FBBA,
F8DE05970846097AFD9D0C1CFAE3F4B5FE5F,
F9E4F372E2820CBA01A1FD4D0028F772F6B0,
FDD7FC2C060D0CFAFDE5FDF6F205019DFF9F,
F862F14BF56DFD86F73DFCB5091CF4CFF2EF,
FC0AF393015CF8FBF3F8F6AA0752F0F6F416,
F4DFFADEFF53E8C2FEB8FBB3FC63EFBB0191,
073FF59201DFFCC2F9BBFDAAF666F66408FB,
FACB00050512FF1FFC2601FEE858FD55FEF4,
0362F66403D8FEF300580319F1810266F1C3;
