memory_initialization_radix=16;
memory_initialization_vector=
06B0FF3AE8AF05DC04C5ECAAF1BBFBD6F60F,
FFA3EDA3F4D105DFFB75F9140B7FF8AA0285,
F88AFC75F7D3003FFA13F63FF2BAFF53FB8B,
020EF7D0F2D6F414FABAF6A9F9C0FEB40620,
FD64FCFEF9DAF893F90E051700C5FA8C037E,
FB5B0B7602DC0DE9FB4FF3A8FCC5F82DFFA8,
F446F426F753F2E7003AF111F1FEFCB7FC75,
FC56FA7005CAE7AFFC41FADED7AAF17CFFF4,
F820FBF5F64DF5F0FBF701490134FE410502,
F3B5F60706EFFCDFFE21F71AFF4701EA00EB,
081DF8B8F6D6FA78FA7F06CEEE8F03DF01BD,
FB9FFF5BF99502FB0231F772F62805D3F0CA,
FDC7F701029506E504D204A10373FE40FFFF,
FA9DFC71F3F6F7DE01260430EC04F5D6091D,
F21E05ED05ED004AF5130843F595F43AFBB9,
FA59FCD20834001EFBCBFCF10795F80BEA2C,
ED81F86AF293027F012DF4600621EF79040A,
0434FD4DF44508C305C4FE55FC40F957F5A6,
F074FE43FC680408047CEBBBF931ECCAF3A2,
00D8047705BA0CCD0605F6BD056507E9FE87,
0147F608F7AB00BFF2C2F7C90917F544EA7F,
05E0F9A1F5A7F918049500A0FCEE017E010E,
F565068E075803CC066509B00845FA6D032A,
F96D06A906210632F855FFCE085CEA8CF9C1,
F8C4F97A0117F5A4FD46F8E9F8D7026AFAAD,
010DF3BF048BF54AF6C600FD014A05C1F77A,
FCB7FAB1F4F1FD940287F675053E03DBF50B,
FD18FFC107A2F862F9F7FF3CF717FA56FFBD,
08C9FAABF8B300CF0440FDBA05D3011D050D,
066AF7150498FF0404DE04850543F5410350,
00AA086EFF99050A07D6FC5F02E8F91F055E,
01EB060B02C4F8D3F61EF4A602FB0296F210,
04F7F630017EFFD4F636FDCE0B2EF68304A0,
FBCC08DDF9C4FF91FE74F46DF6DD07A0FF11,
FCABFC1808D506640014FE6CFDE3FF880836,
0999F983FC6108F1FDD8FE930035F78BFEA1,
F6B6FF1AF9CDF0F8F6B3F0FF0177F6450393,
07891280EBB5F5E2F671FED7F27AE190F45E,
F719FBBC03C7F7D0F6AA0562FAB9FB1BF394,
02EE0674FC4FF813F6B4EEF1031304E6F44D,
06B7FBB7025EFF4EF572FB91F76003240619,
0819EB45FF1C02F2F572F9ADF6B101FC05F9,
FAD2FC82F832024B0B2002650A9EFEF607E6,
08ABFC83ED12FF80FEA1F854050D0751FCBC,
0502FD82043D01C3FE0BF8E00942F8CDFBFD,
088FF4FA0580F2F6F4C0F6BE07BE0976F78F,
FF59F5670790F4C2FB68F613FB74FC21F44A,
0772029FF7080264FB83FCC2FCD4F09BFA9A,
07AB053605A102A8F4E8069BF4360573FF4C,
FC2DF723028DF7ABFB18FE4003390C450BBA,
03B6FEF2FC77F4DC03B3081508D6F84FF451,
FB84FA5FFD21005C0475F74106ADFEFCFF3C,
F964069C08B605CAFC0D039102C70130F75D,
07C6F70EF80703630451FA77F827FE1AFD2A,
FD820905F8E8FEB8F989FD34048BFB6F04F0,
04C7F58FF21900C2F4CAF9C9FD5301EEEEE3,
F92F04A8F927F9B3FC8004F0E79E02400757,
086FF705FB2B00C4F6C5F5AF038F03BF0904,
F2F8FB10FFFC077EF68301E9039EF45A036D,
FCE40AB00892032F023208C6043FEFA8EEE7,
0B91071F05BEF5A8FA38FD25061DF2FC056E,
F6F6F553078BFB68FB9DF423FC6E06F5F6A2,
F7B6F88BFC01F737FA4BF7CEF931F91DF77B,
F3A3F493024705EC01A5F5B108FAFE720352;
