memory_initialization_radix=16;
memory_initialization_vector=
04B4EE02E871EECCFFF4F741F5ACFF27024C,
F76AF6ED08C7FEFAF538F01D0AB807D5F611,
FC2FFD2BFE2807AAF8110995FC98FC36FE99,
FB7FF80E01F104ACF04FF00FF79C0860FB0E,
F4E8F074F3CEFDA5F1AD057CF72405BEFA96,
FA57059B084BFF09F6240A0CFD09F373F70A,
040C00BAFE97F36FFB9C08170FB9FDECF70E,
EF06FEDB0C39F52306D3F5FFF6BEFECDFEEE,
0262F903FDAF07E9096007E805360332FB83,
0271F605FC130466F9FF047900BD0189FC3E,
0250FD1FFB4405C3F330FF1CFBC6FA410762,
0507FE6DFC73FD99FD70FBDCFD54FC08F9D0,
FB020318F75E04C9FB8EFA37007B0639FF62,
051FFED2F23CFB77022BF23812D6EF03F6A3,
FAF5F84CFEF7FDAAFBF2080302DC06FFF41E,
002308CDF9E0106500610171FCB4044801E4,
030A04C6F9A909F1FB28F524099FF5AFF3E8,
FCE00419F4340290F886FAA70912044CED7C,
F9972091F35D161709BDEEE40003F3FC05E1,
EE5DF0E0F5ADF970010B034903FAF988FD0D,
1AADFD9DF499ED420100000FDC03F861F823,
0526FDD705C70199F7FD027903380525F9D5,
F53AF974F502FFE4056F058407D2FF5AFA56,
FEFCEFE001FDF7CEF47EF6FD02C6F0FF0C7A,
F4A7F8230697FDAE04110942FBC9FC34FECE,
FD9D00E209B208C6043D044C01830029FE75,
F0C00014F54107DD0709FE250272F7A7F736,
0507F8A5FADEF7F00803F857F40FFDC200FE,
F276FF3EF745F5C1FA35F9010499FA59056C,
F5E2F758F83307A303070449F80807650383,
F9F307B9FCCA04210032FFACF829F89602DA,
0403F7F4F929F59BF914FEF6044BFA68053C,
F4FA074105E20038F7EBF512F6F7029CFD43,
F6B3061FFE190455FD600294F44F071406B9,
F860FE16FF7D050BF09404BAFAE90643FB34,
F8FCFE1CFC4CF75C0390F30C0F3DF685FDA4,
F61306F2FED9F6D5071CFADD0EDAF32AFD5C,
FD080DA5F65FF418F90DFBC2EF08FF36083A,
F7E4FE93FF08F833F47B0875FA36F983FC91,
043AF695F3D40A00076BFA5D08880144067B,
FB640614F3D5F8DBEF4A04EF0207F84F0AA6,
F982F364F72F07E0EB56FAE2F2E6F703FEB6,
F58EFE13F05C045801810120F715FD5C095A,
07EA036A083DF77F075B0787FBCCF175FB4B,
FB38F51BFD39F3B70537F1D40394077C0404,
F5CF04C5FC55FEB4F37D02E805F60570FBCC,
F7A00807F806FE1A032DFBEEF0E60381F792,
FC25FBBA0A0C00960308067F0942EAF2F5C1,
0BA5F8F70224EF2EF2E2F9520407FFCA0162,
FC54FCBAFF93F86DFB6EF886FA4209F70789,
FC50FA3A05FF018C051DF26206B3F4AF0811,
0BC3FBEBFAEEEDB5FF8D08B6FFA102E0F016,
083805BB0284FDCCFD420621F8ECFA6FF854,
0144FCCCF8870831FB7907C802EAFFFA0946,
FF4E05E4FFF400CC011DFE0E039A02B1FB36,
06880777F9ADF65BFC4AFD78FBE0FC87F804,
FB08FE1EFCFDF764F973F4EEF2E4F6F3F714,
06610384049703BA08F1F567F25EFBC1F38F,
F3F213731105F840090AF47BFC83FA39E8ED,
F641FF75FCDAF16CFC0A01FF018701AAF34B,
0706002C03CC07BDFB03FA5DFF46FE2FF28E,
F6220687FBEDF3260311089E098E0644F8DF,
007D076205A5F5E3FE0000DE0188FD62F33E,
0927002CF63500D8E9F0EE51F4CF04D3F9AB;
