memory_initialization_radix=16;
memory_initialization_vector=
0059F4A1F65BFBAC0507EF68FEE10719E6C4,
034AFDFD0AC9004FE19C041C08C8F1CD08CF,
FE59FAC50667FBDB0744034C045AF33EF627,
04F1026F05C2F90DF24400F60199092AFF9F,
0777F8B900F00146F13908BDF3A00146FC1B,
F8B404E90B04FF25FD8006A3F1CBFEFEF59C,
F7B2F903F5D007DDEF7CF07B001DF44AFBA5,
F685FA5CEEDBF25F018A0386F071FE12FA9E,
FB3DF3CCF8CFF9ABF9CBFFEA0268020BF876,
F9750371FAD109D80C6EFBAF050CF9F2FF01,
042902EA084000D801A50513FFA9F8D4FA7C,
0F8E03F7FF92FD60004406EEFF07FFB6FFC3,
00A3F953001AF923F5F3DFAB08D706D7E90E,
05FEFF130AF7E6D4F730035EF4FE082901EF,
0707133A0C7B154505C20134FB1B04C5FD1D,
FF4BFDF3FA71FCD702D7FE1B038803220000,
FC56F7B1089BF81BFB5800FDF8C1FE8D0A02,
06F8F09FF1320719F83BF5BAFCBD0910FBCB,
E9D9EED20AAEE8DAFC3EF2CFF325EBBBEBED,
FF5D027D0A5CF041F66C0316FBEEEE26EF81,
121FF500E59EFBE9F461EB23FAE209E6F5BF,
0856FFF0FA95F54D0C89FD6EFB87F4D7F070,
00DE06BFFB2DFB7DFE400360FA400A55043C,
09F4F786F248FDE4FFA6E7A7015AFE18023B,
F60DF8E7006E0750FA8EF81DFE210BC6EF0A,
00EA0C7605E80924F85DFAFCFFCA031C0235,
045CF963F6DF0533063BFC9D02D6081209B2,
FB2FFDAF00010334FD9DF972F6E8F6E401CD,
F782FD4DFD00EF92FC60ECA701B90790E63A,
0214F7BCFA1B01140525FEDE00440404FC8B,
040C076D074EFE650886FAE207CC06D00064,
024DF996FD8D09C20909FEF4FDB6E0D00A97,
ED86FB8EFBEFFB18FB08F9D304C4F9820913,
FE09FDE4F92900920A910267FF4B0CD3F3C6,
053409C3F581F8BC03E4FEF602ED0036060A,
F83B0419F550F675F11E052CF8EBF7FD00DB,
FD9EF83008F1FFB9F6120D9BF84CFF0A0054,
EAEEEF11E7C1F4D2FE1CF5D9E215FD081476,
04CE0BAC08EDFAEFF631FDF9F91703EF02D7,
0FB2082EFA3605F8FD8508C8F4F50079F0A0,
DE000CC1F081032505DAF22E07D30D05F1CE,
0012FE7C078E00130994EBE00222FF920483,
07AFFC2701EAF96005CC0032FD02F8D1FAEA,
F05C06C9F78C089BF8E107F600B3F8FCFD90,
0281F21EF9E7FD980788022EFE5B01D9F9F9,
0523FF5801A502CE126301ACF7CAFD2E0581,
0504F8C50503FFB4F7D9E8C2FC47018CF3C0,
F5F1F74BF3A4F89EF474F9D90ABA0588F658,
0288FACB04150477F8B4FF5208A5FD65F925,
FC8BF6AF025AFFE7FB41FF880B3AFA2E0670,
FF8600FA0571028DFFEAFCF10607FD8904B4,
01F6F221FCE1FAE3FC0BFEC01413F58FFE69,
0365FE88076B010806CF06E601AC01B5F9F2,
FB6FFD90FF67F800FCD50241064DFD3E023B,
F549E679E3DC06BFF70E03610130FCFAFCAC,
FA3AF7310BA5F4F8FD42F38FFA7CF1CE0664,
FA9401B1F4410AB7FD95EF20FB8F031AF993,
021B007F05C3024003620573054901CAF736,
F6DC0226F53A05C50E6A1A0EF6DAFF0F0BAA,
049EFA5EF948F4EC05370225F166FC67F990,
FC731387FE36FCCB0426F0B90862085100E1,
01ABFCF7FC36FC0DF8B406A5FA250795F29B,
0E8FFF25FFDDFE710858FA9800F7F18CF70C,
096E0C1E01FBFB64F91AE58EEDAD0402E6C1;
