memory_initialization_radix=16;
memory_initialization_vector=
014DF555F712F3570775E796F40B07F0133E,
071C012F0ACB03A8046707BC06BD0751FC1C,
F80C0345FC5C0803FA1206B50A96019CF811,
FD34F614055CF43AF6E0FC67F854064B094A,
033EF88900DCFA42F7C3FC0DFECE09090A93,
F99CF848089AFC5007D10A8AFA48F9D102D7,
01000505028D04FEF8BDFAF5FE14F43A066B,
E6CCFDC8F482F10AF6D2F0B3FBDB0B80FFB9,
FC05093907D8FA080573F5EF0201FF9BF8A2,
0400FADD01A502E309E6FB60FEA904E5086A,
0972FEDB08830529026E00CD0A5AF7E8FF7E,
FB2DF787F943F0C9FDDBF8A00A5FFC0AF917,
06330794FB2D04940222FBFFF24204D2FC3D,
08F0012F076F0688FACA00CF031EF1E0F84B,
EF1BFC6EEEE8FD1CF82B0279F6E5FF5403E6,
FF0FFE3AFD0DFB0BF4270000011E080FE892,
FA88F3A80918FC7004C2F398F8C1F3D20327,
FE0A03F10BBF08EFFA150A3202FBF11C0C1F,
E0A20B59021501ED04AEFAB9031DF24A0737,
0082FEFF0527075C04E903CD03FF06A9FE75,
0BBBF713EF25F2ABF8F1EF5406DAFB4A07A4,
0C94F5BA02740711F9CC0450F779FBECFE0C,
F467F465046D049CFFD1F816FBDE09E2F871,
F289FDF2EF38F415F6DFEE37023BEB36F6B4,
028606FCF62EFB39FC37F5DD012F0644FAFE,
F5BEF6E3EB97FB46FAE2F62609E0EEABF2A7,
FB16F7FB0B4DF67FFE7CFB9FEDD0034C0348,
063D0270FB48045EF900FBECF8E3FA7FF3EC,
0A0408CD03340195FC30FE99008CF3EBFEF5,
FB8101AEF1FC05FE01C9FF6BFDF608C7F203,
001303BDF8D6052A07C3FD4C036C01B6F6B5,
F841F790EDC805E70645F988F5A104D208A9,
EDA9FD34072701DD0174EFC4F234FDB0F428,
FD5FF468FC76FF8504B205EE026C031900FE,
002CF7F9F5ADFA0E0455FD80FD9DF19B049A,
05B3FC83FCBF005E00BAFFCEF202F13D088E,
F6E7EF48F9AAEC0800FCFEAC01D3FDF6F674,
01A7EFEDECF90EDA02C5FBCCF42DF554FCA1,
03D90333F8F406A903EE06580049FD570793,
FB52F2DB03C4F3ADF27AFD8903360409F4EB,
F8D2EBADDCADEB0AFCFCEFE407410A58FFD3,
FD4101ADF52E059BFB3CF4B909910510036E,
F2F2EC610CCD05990193F71A063F03B2F7CE,
F2680425FF90FBE3F611FEB5F1F2FAB101A4,
0776F96A072DF8E4EC8B053FF9C3005DFBD9,
05A304EC0B12014B0062FAEF00180024011C,
FF0FFC0FFBB2F2E6083BF43EF30DF9B10420,
0031F4670706F2E0F80CFA00F9BE075EF1C1,
FE80FC3CFC9FF8ACFCEDFC1C08AB001AFCA0,
F36EF97DF9F4EFE8F5770AD90667FAC501EE,
F68B0456FB35FC28FC0C0D0DFEE5FB8A09C7,
04A1F0FAFB050720FF47FE72FB3B021E059F,
05ED0143F8A4FEB7F7E808C1FA5905460406,
098EFF4E000507CA00EE011BFF1E00A104E1,
04A3F393F85CF766FED7FFF7027B050A017D,
FF9C065BF408F867F7DB0E6B02EBFD3EF72C,
05F3FA9FE99A0A77FE230B410C0B0B5EF746,
070BF632F8F0EE14FA73038A0BEFFB610A12,
F8890A860044FD7905F10485076605050375,
FBB804B5FB4F02E203B6FA46F4FF0721F69F,
E1D20BF2F013F941F302F7FAFF3409F3FC67,
F94DF6AB0C8F01D4FC3AFC8209EE0603FE1C,
F32B09B0F1ADF9F20A15F99308F10169F0D4,
FD1F000C022DFBA70D81F783FD5E0561F49E;
