memory_initialization_radix=16;
memory_initialization_vector=
116A077CF9E5FC440A76F2E108D30215E3F8,
F6AAFBEBF828FAB0FFB60D5002AC0B1C0910,
F833E87DE33304E5F957FB6311780541FF68,
EF190578EF7902EBF28DE8F60B71F64BF541,
09E5FFBD05FEFDD7F531F980F7860509E89E,
0D6FF3B4039FEEF40DA905430052F55AEA4E,
038E00AC0C75FAC7F48BE6880C6A0C4EFB91,
0C7400C108E40BFD0558FCFBFB9B10A40459,
E83A11301352F431E8BAF7C8FC8A00B401B2,
016002C8FA7D03DE09CC0D9BFDDEFFF4F6E7,
FC30007CFA11001C06E2F937FEAF012800CD,
F679FEEF07D8E9D2F96EFF4EFD0D07010084,
08F60B0108520112FF3BFE97F4CE02C7EABD,
FB61007106CC030307FC0DC407360890F2E1,
F82CFC80F4D506DFEE06E61A1244F8DB0861,
EA24ED2606A6EB96EF0AF8A0DBC10AFAF140,
F890077C0416025E086DEDCDF3C30B2AF2B0,
E9A3164DE748EC260845FFD20D0EFD230921,
173111F0FF5B0CD21035EFD1FC4CF70FF82D,
FFAF055B039B019F024AEBCF02D3F633E8E7,
E957F256F27AFB2EED40040FF49F06DD0617,
E2D1F67FF188FE8C008A00F0FAD9000C0043,
1203030E05B7FCCCF44C01CDEEF600C804D9,
EF851417F8C10237056E14A601600EB3F140,
E5541482F5AEFFCF0852EE19FE23E2B616C0,
0D3DF98C019B04B7FC650100F8450136FCC7,
FBA30087087B027FF9520041002AE19CF73D,
EDA7F012F240DE7B130A075A1133FBDE1530,
F4CC02970DD207ADF705052702BE0D57F43F,
0BEFF6CDFCEBE7D7F525F5F905E8EB08F9B5,
03F10D381309F45501EAFC5AE66E0D10FD54,
05B50699F4CEFB3B01B8F7B1FEB3F4AB067D;
