memory_initialization_radix=16;
memory_initialization_vector=
0470064700C3074A0CCC0837F9BBF561EE5C,
035CF6B9FC40FD40F4680E5F00D9FE03088A,
0202F68805D908A6048B0AD80353FEC7F7B6,
06F6E23EFDE704CAF5A7FD63F8C102CEFA9F,
F93DF4A9F23100D3F5AD0C100B7508BCFD08,
F8160847061707B6FB1E0E550CBD0AE8F119,
0C31FB65F8190EA0FC76F833FD5C00310171,
F7EF02B8FE30FDC50385F7B407A70384FB11,
0ADAF8C801E7F3DFF39E0DA2F366FB190486,
EFB0FD0700C205F8F5EA06F704DE0D300AD1,
0475E7F5F6CEFA8005D5045DEC3CFB5F02F9,
04A8EED7F51A0468059301DDFFCAFE03FF98,
08B9F40A0FA9F276F325ED46FA0406C7FD1B,
F6DEEFD5F56DF3B5F40DFE8E0436085EFDDB,
FF1AF40CEA76037D0AF40A9AFA06F954FBD9,
01E707ECF52500DDFA5201D208670349FFB1,
F29D0B2DFF2E0418F5C1EBED0A63F438F2F8,
0522EFAC0520F14AF6EAFFB3FB96F53D0B3E,
F72AF35CF6A10A11F430FF8008CC02A1F5C3,
F2C8093D0ADB0976F2F106640429F13E05B2,
F94CF58C0245FDE40C5C0F9003B50B4A0CE5,
FD2F0C0AEF17F15103EC04F1F3BBF93E027A,
0070EB4DF38500320164F31401700446F881,
0DB403B40226FADD05410E42F3FCF4880539,
0852F5ABEE2DFD030BDFEBBEFFB7FA3B11C0,
E402F55EF7B9F076F184049E0DDB0BFEF119,
EA8CF980F9F0FB83F33E0CB400ADEE7B05CA,
FE970C21038E0260FFE60540FB68F2FE04EC,
0EA6FD8300D80329FBF5F17F02720121FFBB,
F98C019EF4D903F8F150F93200B3F27CFA45,
F731F968F6ACF638F450007505AA06A90426,
F22A078B01E4FACCF7880E6EF901045C0681;
