memory_initialization_radix=16;
memory_initialization_vector=
05E2062604B906CFFEDC02C7F00DEC950A2C,
02CDF71C099CFB540358EF0BFCB4044602E9,
F3F5000AFEFEFDAE07D701EC0830FF66049D,
F243051BF77CFC85F4770426FC63041EFE20,
FD11F030049D03C5FC1906A7FB7E08D5FC2A,
FC7E0297F9EBF437FFE3F399FB43FC5AFFBC,
F348F7BD02FCFF1805CB0438FCDCF77CFE9A,
FE24F309F524050B04C9F8C9FD4E1728033A,
FEA7026F03DC06260209058408820349F5CF,
F580FC38F59D0011FED8F705F3A7F2BE06D0,
018E090C0847F361FE01FA01FB85047DFE4C,
FF57F494FD5BF921FC02059AE704FA0D0310,
0306FB0C0048FF5D060EF904066AFD66F91B,
F3660529FD770426FD9AFD4AEBF5FECDFD09,
0A17063AEFF8FB35FC97001CF9FBFB52FD1D,
FF330000FBFEED6DFC0002BC0209F441F454,
FA4DF8C7F46EF5F2000F0557015902BAFF66,
F1C2F395F27FFAA60820052C01BFFAD901F0,
E526ED0C01D30140066AEFABF6CB026BEF9F,
FFBCFB5DF2EDF6F2FDB1051901BD04D7F83A,
002B02F2F47B0C45F7C900C3EEF1E93CE3D2,
0089F5A10830FD16002C03D8FD5707C9FB38,
04DAF8B1FC98FE02F9C20825FFAF03C60296,
FE1BF56A0A61080DF511F9B30241F8F9F343,
06D6F65FF8830456FC4F09AC096CF905FB2C,
F0FAFD0FF39C01D0F9C20211F660FD1CF846,
F7A2F59EFF63F58903C001A6F8D7FE7E058E,
06A7F6C0F73F0255F95CFF63E955F3B3FE8B,
FFA1FF63F9D1014BFBD7FCD7F467FC04F801,
007900640245000B02D3FF2302F5FED0025D,
FD98082C0955F5C0FEF90988F52C06CDFB39,
07F5FE6EEE56F8C700ADF7ED0A95FA2FFE6F,
ED130A79F83BF3C302E7F79EF7380AB70217,
F3E9080D0B6BFC1507A6F54D071B059AFEC0,
FF0F05B5F918FFD70538F737009409A306FE,
0644031EFDA008DF011901C9FE0EF4B3F6F6,
F489021DF62D039F03BEFCB00E54FB41F9BA,
03D2FD33DD34F88F063301B3E9E1EAF2FBEB,
F95A06BD051CF131FB0804B2F4DEF67AFE9D,
FF68F62DFC15FE15F750F827F758022AFA8C,
17FB0ABA06BF00BDF712F644F0F1F99D027F,
F411017601000232F5EDF2380212F8320441,
F94808B5FAD3FAD8EFC703EF06BFF6DEF7B2,
FA410478F61F0209FDE8FE06053AFDB20112,
01D0F76FED190668FA2E056804C7F24C0A06,
003F0890F6670595FFC50076FA16FAB405E4,
07E3F2DCFDEB00EC04DBFBDE0592F65D0196,
F5510209F3A4FB7BF0610329F76FFBACFB5B,
F884088E045EF4EEFDF5F66505DAFBBBF7C6,
F1E5FC1AF805FBCEF500F9D8EECCFDE7F799,
FE37FDF2073D0735F8B0F219FEB5FDD9F26E,
FC48FA9DF76AFA5FF326F647F9CEF550F5A3,
03C1FAE5FE46FE0AF9D5FFB30259020AF325,
0B8A0B56F85D042D088D0857F9F701D4005C,
F84806A2F2E7FAC00621063203AA084FFBE0,
018DFD00F6D3F0FFF9FCFE0200F5F3A2F880,
FB16FAF1F85DF7B5EFCBFFA7F4E7083F03A1,
0A37F53DFB87F4FE01A4FA3700C8081CF1F5,
FCF2F91904A4FF5808E5ED8E04E3024AF48D,
F80303CAF43EF5C60DD308A8F7C5FA85F0A5,
FCC007AD01C60A33FECCFFC3E925EDCDF372,
F92CFA72FC9BFCB7FDCFFF5FFA380238008B,
FD55F78EF9FFFBEAFF30FFA200C7085B00FD,
FDC8F9C9FEA2F7D5070D0C1304CBF6DA0969;
