memory_initialization_radix=16;
memory_initialization_vector=
FC80F749EE0EEECAFCBFF9C5FFAA065C024B,
F7F7F7160ADA01850089FA1309F0FF29F96B,
FE36FF5FFF30F936F76B078AEFE201CCF7E4,
02E3F6E4FF9201C3FE28F9B5FDB203F90096,
EED00B160796F6C4F29D01C70130FD7EF849,
0E1CF740014EFFF902450A1CF672F2CD053D,
FD8903FAF7E7F7CA0A030003F506E4C3FE05,
F17A0725027CE664022FF5D9E1C3F3BCF2C7,
092503770603039004B30701FFE8061902F6,
FA200B7B01BFF7CA039E06A2F885FFCA0771,
0881FFF10AB5FAD0F73D04D303AEF8DFF961,
05A5001EF9EBFFD700C9051203D10152F810,
F7120507F771F7BBF312F705FECC05180625,
FAAE0006017F029BF8E4FD50F604023CFBD1,
0771F8EBED0FF6F9009103C3F7E6F65E0350,
0000FF6DFD2CF34BFC13F86A06BF01C4F4F3,
F5EFFBAA0357FFD30568022D0736E341FC6A,
FBE0F4030644FDDFF697EBF605CCFACDEA7A,
0704FEEEE50B0B7A0B23DCA1054EE163EF0E,
ED87F3DCF73AFBEE0483FB20FB14F6B3FC8B,
14AEF6A7F41EF5700400F66F148709B8F7F8,
FEADFBCB06FFFF02082FFFA8F6A8FBFCFC10,
FCC0FD73F783047FFA18FC2A0781F9B8FAEE,
F8A2FFEF0335F4BDF340F4B0FE8DF221FCA1,
FA65F517080DF68505B2FA6FFF74081FF6B9,
F6EF024A04D4F63B00C0FB700802F974F8F1,
F445FF30FE2D09FDFF7000DAFE0404E6F87C,
06CFF5DBFD7304450796F9B1FCAA02D5F722,
EE56F2F9FD59073D09B7080F082C01F300F2,
0821F5A1066007ED02A2F67FFD6CFB09F45A,
FEF800E0072EF89201EDF31FFBAEF970F846,
F30A003804D00246F548F40804FA04BB03BE,
F4E1F83DF390F34A08180913FB18F40E067D,
0810F872FC36FEF2FC16F98109C6F897018F,
05C9063FF4030013FEB2FF65F9BC0482FA11,
F5F5085FFD74FBF5FF4A06E4FF83F305FF9D,
0434FAEF064E0586FB01F54BF34EFB3C0704,
128B0333F45CF892FD48FFB2E838F464F730,
01A906FD05E601EAF9D0FC52F5D4FC5FFA2F,
F936FDC5F1BFF4BF0342FC30FA8E04A6FBDE,
FB2C0D18E604F57DF935F567076D06640101,
093E0434FA81F8D60520F45EF66D03490000,
FEB204CDF4F7FE31FF4FFC93F96E07C50787,
FFDD033B0BC60699FE76FBA30358F103EE13,
077DFB82F5F8F6A102C3F6FF016BF34EF599,
08D3FDFF093A04D80547FD03050FF21BF3E4,
F3200083F8CD0555F5F6FA6802A3F8D2F754,
002EF5440910EE8CFD73F6C9081D011BF864,
F4A3F96700E9F89DFD02F264F3A3030408F6,
F73FF69B0612FD44F6F8F7F104A506C10B3F,
0875FC780929F73EEDB8FC07FF29007DFF1F,
0C93FC6102F0F0D0FBF7F3D90046060F0130,
050EFE72F4C8FA48FB3101CD02C4FA07F4A0,
FA16082CFEA1016B0132084001BD06CD081A,
F69F0336F3F608190589F5A00404F689F914,
01D6FD5A038F0850F312FAA8FE30FD8E07CC,
F89B09140A2DFF6B08A9FE77FEE10407F422,
0991F6B2FEB8FA27FD2DF2A300CA0041075A,
F8C20B94FEF1ED14F9ECF975FF50E26F0435,
0A6305880979EC80FEE1F95A0217FBD3F4D5,
F30100B1FEEAF619FE34F6FD045BFBA805E2,
FD9BF5A1FFB20451FA8805570093F499F658,
F794FC18F97B01D4FE95FEDDF828F6CEF4E0,
0AEFF9FC04740AC402CEEBAB0964FA74F856;
