memory_initialization_radix=16;
memory_initialization_vector=
F56DD9FBE43607AAF9C1F4C1FDD2EB8AF995,
F3FFFD4D03C9F563002404A20242FAA7F80E,
F238048C0A68FAE7FFEA05ABF8B00064FD95,
0020F4520E9D0130FA690235FE07F84800C4,
F0C0002DFE9EFC5C02DF0146FA8BF52908D3,
FC79F929FABC019207A5FAD3041CF083FA18,
F91BFBEEFAEE0875F921FC3CFD65025703D0,
F60BFC570EB7F5C5ED11FAFBE3371262F9D9,
0618FE43F14EFDAEF4ECFDE90305F2BBFC99,
0067090C07E407F1F82B038AFF1406EE0370,
FA88F9D00BB5FFE4F7F001D2F8C3FF02FB41,
FEF70002013DFECDFF6E01EFFC8A0415FD2C,
F77608EB04B0F88E01F0F70503BAFED403D1,
0131F708062A0113F92B07A3FD8BFD8CFC34,
07D7F558F6E208B807E0003900DEFC2C0512,
0000FD9EF82FF6A601E2FDE6FC8101A1FF9F,
FFC200F4058FFB20FC81FD2BF79FFC59F8A8,
FF0C0062063D01A3030B0D770270FEDD093B,
F4ECFCC5FC80E778FF810C5BE09F05E0ED6E,
05CAFDF0F4C507EDFD0EF9DEF53805BBFF1E,
F9DE13EEF218085AE159088FF459FD67FDC4,
F820070AFBA3FB35FA99F544F268F4A5F202,
F72DFE10F8FCF62100D7FF97FF70FBA3FC97,
ECDBFEFFF9A7F025FAC10606EE23FD7506EA,
01E70503FC89F7B304980597FAC7039FF2B5,
F7B3F7210EFD027EFA77014906E4F90EFD0C,
06620B85F825FE41F80F05DE062D0050FE13,
FC7DFE9CFD14F90AFD350044EC22FC460248,
EE4F029B10AEF89CFBF1099401AAF866056A,
0A3A0356F52604DB0781F9A50BD90B0FFB18,
02C90965035CFAEFFC83FC91033D010A0800,
021403F0FD40F89AF9C000DC0EB7FEA3045E,
F7A8F4ADF723FAB7F6BC04FF03E0FF940094,
0752F9E0FF880071FC5A08DE0B76FE0AFB5C,
FAEB00F70763FF6FFDA403E6FEEA080A0708,
04A9FD82FE8F05A3FAC401C705C0F754FE15,
0385FBF8074300FBFB11F8F709820069F601,
FDBEF97F0403FFEEFEE20013F11FF95EFB5C,
FCAC040BFB7DFCD303B0035A01D4004E0142,
0360FF610BB70A9EFCA5EA8E078BFB77F033,
019B0F1A0DB612EB00AFF90AF61AF6BBFBFC,
0AD2FFABF74F050EF19003A6F62C08900332,
003C058CF751F97B00A3F6DDFF530C0704A9,
03A0FD35EE740D9DFDD0F1ABEAD507D70287,
F71E0543F32AF43D012CF82200DB0088FC1C,
FA73F81FF725F9F0F21FF548FEA70650F716,
FEC7FEC60098FDF20355FC78FAF603350473,
FA44F790FBE1F8F3F8DFFC6EFD64046CF9E1,
FE42F95CF96D0875FDC6FD5FFDD9FB63FCAD,
FDF9FDCC028410B4FDA7F8490315FA7AF972,
F85FFCA90C31FFEFF7EDFDE20776F4F40402,
0455F999FD5C0BE3FC6EFA1C09B7FFEDFB4B,
FC90F867F26B093403CEF945F8CC0236FEFB,
0833FD6203F4F90AFBE2FCDEFB03FAE0004D,
FBAC075AEBE4EDE10830F8E7F8D0F501FCE6,
F7CFF99FFDE9FC4C08BDFBEA02D4FDEFF629,
05E0024917A9F9EDFAB7030E078504C5FA90,
FBDD03C3FD8BFFFE0766F65AF7EAFC1CF3B1,
117B06FD134B0112FE2B098700CFF01E05D7,
029002C808640070F8C6FE9CF8160199F8F6,
F591F7510000FBCB0036F9B109FDF654F829,
FCCEFD9905F902020370FA19FA6CFECAF7EA,
03EAFFA30BD3FBC5F643F4BBF780FDCDF892,
0892E74CFABFFCDDF66AF029F7C5F353DEEB;
