memory_initialization_radix=16;
memory_initialization_vector=
F3A6FF37F403F587EABEF88FEB18008F0887,
EC5EFD9902620F16FC16FD0E029412A5F7FD,
F68CFDD5EBB3F75CEC08FCF8F69607CFFADD,
FB49F12D0955F9A2E92FE807EFE4F85A10E1,
F3E6FEA4FA9306A7E63CFA7A0537F317021A,
F08E082C0490F7EAFA6C02D7EDED025CF842,
FF9D0605FF9CF7BB02C7F8B1073F08CAF39F,
F80EFC361D0D030FFA49F990ED2FF44DFF1E,
F064154416CEF7B3FBB8F584FA55035DFEEA,
FDC1FF780C40FB2106210766F59BFE21F3D7,
0645FEDDE832FF07FF6AFE70F84F00000000,
F58BFC4BFC1407E2010FF3CF0A6CFA1503DC,
0638FCB6E15C0AF3EEA4F6110BD503E9FABE,
0535FFDFF91701C509FA00A209CCEEE70075,
0E42F43FE135FFF5D171033F144806DE09CE,
F71DF9F6FBCD00A00127FB5AEE65FD55FF64,
081DFC1F04F0030808020F23F7980A72F52D,
0B5EF46AFEF106C0FA50FB54FDE1F9020143,
0E9B07B4FC6EEDE41025F445FD49180A13AA,
0CEE0B87F9171340F40DFD11FA5FFAC1FA75,
F25903ADFBB6F196F5CE04350069039704E6,
E21A004004F4FD21F894F91F051EFE170000,
F7CF02940547FD3001890D00F06DF8B70843,
17C8FCBD09F603B204D3FC280024F85F0C28,
EC470791109DFC1709B20033E473FD39EE92,
EE36F16D0C3BFD780E0AFB9D0C5FF7960986,
FEBE213F14A1FF3C0B3101340033FEC4053B,
0873F02DEE80F87603DC0F0C089903A9FDDF,
050BF8570F33FF88F9100C490AD80B3BF533,
0C6C07B905B0E716F29008090098077D0ACC,
F8D312AD15F5F51A0753EE000D60F5950016,
0CFEF514F5D4F21BF6A908EEF62FF06A0F65;
