memory_initialization_radix=16;
memory_initialization_vector=
084702B304E4FFD3FB93060A05D9047AF8E9,
058D09590ABA0209F2F30A69F4610DB5FA63,
027B0474EE4AFF8AF644F1600E84F877F504,
EC4EF15CFAA5FA87FEB9FA19FC2DFA8FF83B,
0A41FE310E48F365F8C70BA7F468F597F368,
04FD0A280AD1F076F5DC02DBF7D90E14EFB5,
FF6F0407FA6BF69405E9F358FCF7015D0120,
F7CEFB120CB7F028FBCEFA62FC93F972F3C5,
F929FDEC04AF017C015C018CF261F5B80613,
022FF967F0FFFD1B0E18094F03ED062C0286,
E7590E82F8DB04F501A60134FDF7047EEAFD,
062AF650049705D9FDBAF8FDF7AE0816FD49,
E55B0B32046EFF55F091056D0353F8A51415,
F440F2B401EEFB5F0AADFA10FF1BF55DFA4C,
EE2313C6F520F997FCFF00441211F1F30A35,
0259FBEFFFB8FA0DFFEEFFBFF95BFCDCFBA0,
FE9400F3FBBBFF470C0CFEF7F9880B7406C9,
F5400968F7A1F87EF22B0B90068D072A0192,
093CF4360501F6B30ACC00F2F64FF9F0F9B5,
FF660CBDFADA0F96F19A078411C304890736,
00AA0F3500100FE206D809931036FD37F539,
F5E7F1DE04CFFCB50A83F36101B702C4FDC2,
1581098A08B7F03C09210DD7ECA9020A0D0C,
F8840EECE8C00AF6098E02E1FB4F04EEFE87,
F40010FBFADBFA7DF301EB5B0400FC05F04B,
013BFED40336F3800AE9002D06350E2F0870,
002FFE8E022A09790463FC51FB520A89FAAB,
F7B6FA7609F10C65092AFBB001860B5DFC36,
FA6EFCC4F4F6F048F7F101EE044BF3B30D47,
0BF1FB38FB9FF495FEB2F549EA18F793F47C,
F37105A20D82F1CE0B08FD960B6C04070B2D,
F7E4FF570909F751F54E001EFDB4FEE9F0C6;
