memory_initialization_radix=16;
memory_initialization_vector=
EFE7FD6BFDEDFBB2051EF32BFCD0059CFCA0,
F7DFFDAAF77FFA6FFA2C064808DB012EF3BA,
FFF5F22EF2D5F76BFBB20766F216FEA70345,
03EDF880F247FACF0186FE82F00103D802BE,
0116031CFF7800BE05FF00F40ACE0886FD92,
0AB3FB43FEE3F703FC96F7C4FC3002CCF546,
09EA02BAFEEAFD5A03320639F1A20A910997,
F15FE103FFA100E6F65FF6A7F7410AD602B6,
00E0F8AA023AFAADFD95F5D2FB96FA17F4B4,
09BCFDF409EE097EF53FF9C4F636FF7FF648,
0830FD930056F1B7F618FEED03E0014EF417,
018AF6E7FD05EDCC0050020AF213FA55FAFA,
07ED05B6042CFACA02E0F7BDF50706C5F9B1,
008FF60CF95101F6F7E20C6EF1C9075AF7F0,
FFDC09F4FB0C0C96F49C0402EEE4F60DFF50,
FF35FA30F9ACFBA1FAF8FD92F626EE4EEE52,
F1EFF4D2011BF9E5F091015BF4A00364EB50,
09CF00980838012002E5F0F8F5D1F3F9FB20,
FB69E1A9EF66DFF7F6870E4EFD4311AB017A,
FF7307710803FA36F35CFFBF090A02EFF918,
F12BFFC004D9F01806A2F3EDE56EE825F3D4,
F6E2F7230007F216FE9705B7019D007103CF,
F76802DF0348F48302CD074EF937F4D00045,
F75801B0032802B104D509CAF59AF6F002B5,
F38BF86A06DB08E703C4F1E2FF2CFCA2F729,
06DC02B7F06500570636F9CD0687FF6504BC,
FC31F6DDFDEEFCF9023B01EEFC31F89F081E,
F74400A90361F608FC25FCD1F5B8064FF5F8,
F80AFFE005A4F9C0046803EAF7CF03ABFAE4,
F395FF0A0868F483F7E603FB01B8009E0828,
02EB03AFFC9E05E4064901030888072208A2,
0674052DF7460561FFF4F65AFB94F882EF54,
FD01FD47F99AFB7CFA79053301D9F64A0170,
FBA90665FEE40408F87E04F2F81FF520FF26,
0091FE78F555F9E3048BFED0F4720160001C,
00AF098FFD6CF7160772028DFA53F46C0748,
FC5CF83FF252FC2C067DF7B3E93801F20C04,
FE140078F45C07A409C206CBECDFFEF105F2,
FB04F7840918FFF70A140B3F002AFFCEF863,
061CFB5FF471FB99011BF3DBFA7605DF08F3,
F2F20174FC55F917F8410596019100CEF314,
F62704C50AFDF7F8F480F303042EF6CFF52E,
FAF3F31A00C8077A05B2FCC4F60BFEB70095,
0571021BFE310684F9B8F886037BFEAEF278,
FF74F815077CF280095C0E1D0A4EF2F3FAC3,
022107CFF6FFF2EBF80A04200123F31EF19D,
FE19F8A7FDB704BDFAB403F0077AFEF9FB4E,
F813F532FB9C079806A00464F153F60402AE,
ED40FBCEFA8102E4FE7EFFAAF486088707B8,
FCE7F9100913F8F4085108D20E06FF54FFC6,
0435FA53002904F1052805210033F43BF8E5,
0234F407FD1001D6F190F8280449096707FB,
0649F93C036D06DB068AFD0404B70896FD16,
068A0A2A037EFA9808B0FEE403B7011CFD22,
036E03A7F5D4F4EA08BAFC90FA48FB40F270,
FB45F7F9F9F0FC7BFB3C0262FD93040BFB1F,
F130FC34EA9EF467FCDFFA92F6750AF1FAAE,
03AE0570FFF000310079F6B2F6550808F87A,
0004FED2FC35F8650A02043FFC4EF8110262,
FB92F469FDDF0954F9F9F9D7F2FC00180878,
01BC0070F3AAFF34F36DFC20064F01D7F2DD,
F1BDF955F7F0FCFD0500FAB5FD8FEBB805F4,
053DF6AFF7DD02FAFED50D5902C8FE01F271,
DBC7F121F4DA00A30383044D097AFB9BFCEF;
