memory_initialization_radix=16;
memory_initialization_vector=
F4AB07A0F0CF03BD09C7EBE405600112FA68,
F71AF1E9FDBEFD51F70AF4B7FC55F935FE9D,
FD0301A903B5024605E1FA07EB2E0ECBFF94,
FFD2F9C1115A01BF0519F1F70D6EF47EFB11,
F993ECFDFFE80BD4E3D2080D010D006A0099,
048FFFE0FF74F3B504A5F336014FF8CE0F4A,
02440BCCFD2A0B150BDDF794F3F1054F0915,
F63DF8380A9FF736E9F1FAE4F602083516B2,
F6D7084C1400F569FA540A1DF9550FC10059,
09F20B28FCE508CEFEBCF96405FD18CDFC64,
FD91FFCBE84407D5F639FD31F6F600000000,
FFE6FB06F529E9A3F73CF3AC08A7015AF487,
0D25E83CF729F0FAF9780458048FFB7F0421,
FF6EFA6B0F2AFA48FA38F8FB05BCEF76FA69,
F82FF65AF6BA02E1FE4E0C9B0E46F8B4F326,
F306FD6AEBECFF01FC6CFF1FF887FB2B1062,
FF24F64D03DA066507710767FA89F0E8FCBD,
EF6D1169F40907A0FB65F9E00AA1FE20F25E,
F4C4F134F8000A8EF6D2FDD3FF3BF1A70C22,
F76CFE490FF60CD0F555009B04B1EE6B07FA,
FFA807BC094909DCFD4E0A0DF0B601990B7E,
D57F0079FE13FE6C01DF0000F7B8FFFC0000,
01BBFC580E55F6FE05C30BA5F2150433FCE3,
FAAE0F850ECE082D0C5F0F76FF34FC95EE6A,
EB29FD9AF6C501190983FF88ED6704BFFE97,
FF8002850BB8F07E060DF9A4000F01830D2E,
00001E6E0B2B0000FB4DFBF700FFFB57FCEF,
09BC007AEA2907ED023BFCD3F8631240EC51,
FFC2064206BCF7DF0968094F0F8D05140024,
12B6FA4AF98F0A140BD304ACF482F930EE4B,
F681FA710655FF99077BFEB0FD5FEFFC0F0E,
F83CFF71F6A9FF84F94CFB75E1C6042BFEA6;
