memory_initialization_radix=16;
memory_initialization_vector=
FA730ABB0C2DFEDAF8BDFE58049F00B7FBFF,
059503A80DD409E5F53506E5F44D0651EF1F,
FBDBF1AAFC43011DFB690C0D030706DBF927,
EC62F93DF426FC030446058506F0F890ED69,
0934030D0426F4B2E48EFB91F3F80964F900,
E5170A64F9DBFABBF71BFD48FF2BF4A30A74,
FAD90785FAD7FF110B56FCB6FC9E0C93F38D,
F292F7BFF959091AFBD3F68DF5A6F4EDFCF6,
EF78069411F5FD9B0948009B00AA0370F9D5,
08EEF767F6660430004D05AC0455056C053D,
0C890538EC0B017CF9A6FA1BFAAD00000000,
056606970E4DF82CFC79F3E810A5F1EFF916,
092DFE6DE244F1BB00F7FF28FA670943077E,
09A6F41E0CC304E4ED190817058E01C3FBD7,
FE76F45A0798097CF73D06C5EEEEFC34097B,
F86FFE340144FD3DFE68F945F727F34204AD,
FB870770F43CF366FD9A0FABFBE9052EF1D1,
03FDF5EB037C077908CA109A0130FCCEFE1E,
F13DF6DCF95BF81AFAFFF01EF9DCF9D10FC8,
F6A70C9FFC560B49E91FFBE7F5800817F2F1,
015F0172F683018FFD44F626F8BBF8B70968,
D8ABF3C9F2D3ECD9F952FFB5FC33FFF40000,
EA900135050C01BB023DFBEFE9CD0017066C,
F43E0C7BF80AFCCAFCE2FFEAF5220A4E018D,
061103F6F17F01BEF94FFB06ECB1075D0CBF,
FE910BA50BE3F31BFDCBECECFE6BFB4F0616,
0000125C0B660003031EF937FF7DFD42F187,
FC60EFD8E3ECF4DBFE320B09FDD6FE77F70E,
0DB30879F99F0C0E049604C7FF91030802A9,
0398FB1D07A0FBE808C0013BEFA30462F9E8,
056808FE009BFAA1FC73F7781081F980F60A,
FDC40F63F7C6F105FF101316E71EF42801E3;
