memory_initialization_radix=16;
memory_initialization_vector=
0DAD07050FFF092FF112FD82FE9F0274E40E,
0E6F024203DA0CDF0397058BFC5A09090C59,
FEFDFA1FEFD107EFF0F702F60E700237F66A,
F0A3EA32FE8E02DD05380F710401F49300A6,
FCAEFD2403040199FCFE0760F97907C205EE,
F860FE85F8D8080CF24FFB22F643FF46F28A,
F726FE1708B90B9003C7FB0B0225086308B3,
F9EB01B9018A0B50FFE20C7DFA6B04B4077C,
F43809ADF5F3FFAF0D95F5ADF36CF908FA8F,
F6E3FE5AFD0FF651F3E2FF33FB6CFAEC0DC3,
054BFF82029C002F00C0FF7D0185003CF804,
F94800B817910551F557F9D7F196FFD6F136,
195AF5490377FD2C0000E6EC0649F0ACF770,
02D40D6309C30035FFD6FCD3F5DFFDAF0583,
F2DB0345EB5501B2FBB2F7CBF53FF0DA0A38,
06E5F7B1EF2A01E8F7040856F02C01A0F466,
FAF9F5E6F81A01DD09720185F7FD064A0628,
FA1EFFB0E7500BCCF197F6A5F3F3F711087A,
0A4608C5EB600773FEA40655ED88E69A030B,
02C506960DEAFC0F0A980967FB52F5C3FE91,
FF9708F0056B08150B540ECC0BC2F18AFC83,
090EF87B03280223000E01A8FF5400000000,
E90D0EFD0B84FFFA1301FE3CFECBFB8C06F7,
040B04EEE60CEBE507E70282F1D70993EB09,
07090543F008FCCAF401F6CD0198FFE3066D,
E98A0AC40F13F8AA01DB04BB00370CABEBA3,
F8CDFC1FF2350037F540F04DFE550147FD46,
F94BED83FB21F3650006F2660D3C053BF88C,
072D026E04DCF00500650978FE810294FAB9,
EC1B0B75F98AFDA9F9A4F965FDE0EFBEF034,
EFE2F860F4C10195F915034DE87AF6E7EFA6,
00530D010D60FE5C0D6D0C4AF117FFF308EA;
