memory_initialization_radix=16;
memory_initialization_vector=
FC2C01AEE9B403C3F537E2E3F2DDDE29F6A9,
097FFF8CFCAAFBB6F7D2041906E9FB3A052D,
053AF1A2F72EFB83F967F8E9F2E2FEF204B8,
02A6FD3DFF3A087DFD6BFF91FEF6F6A10527,
EEEDE92E0415F2B7F77DF7AFFB85F972FA41,
F1AC0151088AF877F9F110C2F4C7011EFC7A,
04BCF2D70778F468FB79FB74F329F5A90202,
F016E540ED6BFEAEE6E3C8ACF8F1EFE4DF26,
F8A0F540F4B5FC1EFD250296F70B00C6008F,
FE6E088702AEF9B0F636FBD8029B04F004E8,
007EFC31FB49055FFCB20146031AFECE0162,
0657F02E022DF2420100FE750CAB0DE8F1E4,
FC03F87CF0E602790712FEE0FEB109BD08AF,
FD52F21DF5E8008B025302B3F6BBF04BF9F4,
F3A50E28008404ACF2F3FEF003930397F817,
FEC800000000028DFB17000004A10A1CEC9B,
00240601F641FC32F474F71EF804FCA8F25C,
073A06BAFFBFF847FDA901000087FFCAF281,
E1650E8E0154EEF3E5D6F893F37DD910F65E,
093BF8870570F94AF2C1003B0DD501ABFF2B,
E7AFFEF6FCBAF31005E7EFD9FCB0FBA304E0,
F65BEF61F9460700FFB40899002801A10973,
039502FE00690005FEB7078D005CFF6FFB55,
042AEB23086F04B7FB42F6BC005BF1F50243,
01160554FA1EF9220112021EF4DC04D1F7B4,
FC86FADCFE5AEF79F698FF5AFA28F163FCB7,
EEB50F8FEA1FF28AF9700A40FA91FA0D04D8,
FB0AFC08FFA6FAC2040905D200F5F01700AC,
F7CF023B0818F2DAFC26F19B01420635F023,
F70CF7BEFE1CFF02EF8E0011F4D309DFF9BB,
FFB30AA5FAED0667049707DA0473F9DA0909,
FE9DF678FD67FD9AFFC3052FF327019EF5B0,
012FFA8406B2FBE700B2FB9DEBFBFA59F375,
0351072302D6FE5B05B00F61EB3407C4FD25,
0314058CF8090FF0075D0223F8F8FE7FFA3F,
0780F83C018EFEE0FB07FF9CFC9CF6EDFE23,
F9FDFD43F72CF3D602180A5BF763FEE8F5D5,
11E3FB4AE4FC032E0BD2F48FE636F6FA0878,
0018FF93FF2E05AAF5B7085FF585F3620273,
01F309DA0A83FCE7FC0113DBE9EDFD67F6DA,
FE2DFE8EFC43F855FB22F776F684FA040671,
0A54052CF672FCEAF35CF378FA070131023D,
F2E2F3550B0E0131F997045A0D0CF2ED0021,
05190254F84B035C051C03670570FE7600B9,
FF7DFB98F6D10917F397FFF9F45D08A808D2,
011001280D770534FFD7011B07400141058B,
01E8FAE7FB48FAC8FEBAF678F85802E2FC8D,
01D3F52FEFE204C1FAC3FA3A0009FCA60614,
02D30C9FFE6E0118F3E6F9FF048AFA5CF65E,
FA83F9E003F5F119FBFBFC66EC21FEA90465,
FEE0F70905ECFF28062D04C7FA9A02C3FF12,
06ECF1060032F937FA06FDED072502C0FC13,
04940166FAF408CCFEF0080CFCF8098A053A,
FA0E007FFBA902E103AAF9F3047707E3061C,
FFE0FD2A022D068BF5AF0009F985F5E7F8BD,
05A3072B0144F1B2F902F7AF08180570FAE1,
168417CCF305EDD6FE22064CFD1CEE97F72A,
F304F00DF819057A03B90723F969FCAF05BB,
09E904950B670A4C05C524D404CA0862177E,
F9ED0604051E0876FD0AF41EF994001E01E8,
EC79FDD9FAAF05F4F629FFEDF8F10249019E,
F7BFFE84F34008760424FB2FF52CFE35F513,
EF590B32F932F165FB200CC6019AFD00FAD4,
C99AD4B00530E6B7E0C7EFC6F8CD0488EC0D;
