memory_initialization_radix=16;
memory_initialization_vector=
09BE05E1F8151A3CFBDDEF82F06404E0FDE5,
FECCFC66057BFD57F345FB80FDAE061802EA,
FA63022BFC8608FD0B37FAB6F8A403C306AF,
F52FF523FF46F710FB9EEA73F5E90893F5DD,
006EF313F05D0151F7D7FF97017D0309F6C0,
FB0DFF00F9E7F873EF4DF634F9E4FB25FA20,
F96DF4AB0774F28B059F0695EA65FA92F696,
EAA2115CF3C6F9F1F947F80E034507730443,
FED8FAAB05B90457FCE4FDD1020AFED20168,
058D0017F80508F4FEFA038FF964FF6D04AF,
02CF09CDFD79FCBF0182080706DAF752FD07,
F93AEAAEF812FB1800000000020EFFFF0013,
FAF2FDC9F24DF86EF8D7ECD00553F95EECC7,
F860F6300143FB34FDA5F7C702A10AE1F751,
E9540335079F087FFFB502B2FA5FF6F106A0,
F827FF3800B40535FF570000FB2D06B80000,
FDB5FBA8F787F655FFF50724F572055EFA39,
FAFBF7EBF33D08A0017309F7002102FF0FF7,
EE9A045EF95BFBDB031F11340202FDCBFACF,
FE7FF3770545F7D5FF57FA0E08E6EFD0F360,
0B03F6D2DF060D9A0157E4D2F4DAFA7AFC06,
F654F767FBFFF96E00C80376F8610042F98F,
FED80090F6BD05690346F561FCAE0C350728,
F47CF465F2C5F1CBFD5EE961FC4F030B018E,
EFB8F3E5F569F8F1FE020A01FC0507790E13,
02E1EF66F1C9F692052B02E5FC83FB24F1F2,
FA61F3ACE6F2FEB80A47FAA00514027605CA,
FCCAFFDDFB3CF7CC0137FBCAFA70004506F7,
FC690002062002D7044A01540B4EF693FE85,
FD82036CF1B3F9780011FC6AFE12ED77FA52,
F99A07B305E4F48B07AB0784FDE0FA08050F,
02500AD2F1100503061DF619F4930144F07E,
FC8DF9BE00FE0A2FED8E0B44F9BFFF1CF890,
F204011AF3ADF670043E032A0120FE420264,
F4ACF9D0F587FD3AF9D40D400A8F0056F52D,
012E075EF3D40331FDCCFC0C0546F3BCF4C1,
FA82FA76F2CAFEA402FBFEAB0AC10042EA45,
FF79FF8DDEB00099FF980F55E87AFC600767,
F4DF05E9FF43F550FB770A36EC0C082708D3,
048AF3FBFA65FE04EF5CFC69F75DF6D50785,
0F0BF2AEF004FF2300C20319F671F360EF0E,
020607F201C9ECB6EA5403E804A4F8CCF5A4,
F56A0AEB0259F88506A203DDFB90FF63F574,
F6EF057E0717015C0659F56A032C0705F242,
06EF044702B107C3FCE0FACE007201D5F6B8,
02D60085FC26EDB3093E06C2ED71F230F65B,
F720FA8FFD0D09F003F2FD560399F1810728,
EE7AFAFEFFB204FF06E7EF31F4C50467FBF0,
00D1039100CA0049EF0DF2D2039AFC0EF63E,
026801330951FFF1FF2005C1FB6E0032FBF5,
F76BF509093CFBAEFECE01E502E1FF9AF40A,
FE40FBABFEB303AB05BD0081FB42FBB6F0BD,
021EFB4F0C1407F301DB07F106F707A40707,
01780059084B06CFF7F1036BFA52FF980C9E,
FE5AFC09ECC40953F225F96712EA0879F3EF,
0307067CEF1601D4FAC7FE3B0610FCFB0241,
0259051601EA03D611FF16F0FF940C07FDA3,
FBAAF1A9038304310052FA25FF76F9F306BB,
F36EF4FFFE27F62B180DFE31ED62FFD6EA5E,
F97901F30207F801F57E040AFBDFF4470493,
EE7307A6F5B407BBF3BCFDE1FF76020CEB7A,
FF6CFE97F262F9E90097F5E6FC1305B5F9D3,
05310EEAFE220144F8E60FF5FC0605FAF3FF,
0858EE440346E3780434F400EDD5FCC8F5EA;
