memory_initialization_radix=16;
memory_initialization_vector=
0C610695FCAA050F02ED06E107C7F54A0764,
036BFC68F898064EF05AF8A2FA32F332FFB5,
026300490600F55D0023FF6300B701C9F906,
0686FC8AFBA40542F992FA75F5180883FB55,
038AFD91FDBC01E4F8030170FF9A044DFB41,
03B708BA08FDFF74FAAD0816F933FEBBFC41,
0B14FBE2025CF960FB07FA2108EEFEED02F8,
FE2F05E906C7E7CBE82D031EF727FF1C01B2,
FBB6F9430A6DF8E00735F8EFFFDCFDFD0645,
00D7F60A05F5F9E902280275035903720180,
063C06F00390FF01FFC8FA2DFA58FBE501AF,
FEE002C0FAB0FA3E02DDFD18FAD7FEE104D1,
06940BA6FD5EFD6EFFAEEEBE00BB0BF2F0A6,
05A3FEFA07260057FB81FEE8F5B9030E07F1,
05B00A0A063DFB580170079BF65500ADF799,
FDEFFE55FA02FEB7F9AA0000024300F8FFE3,
FC26FE91FBEFFACDFDAC003F05AFFC6DF877,
02F9009300930513FD37F555090DFBCB00D4,
F1D2F96D01F405BEFB44F6850036F8E806E6,
FF66FAEBF65608B41150FAC4026DF089FF67,
0BF20496F15F0CB4FCCA020D052409C1F89F,
F60AFC4201EB014E00F2FEEA0A6905EC0825,
FAB40682059C03B3FF7FF5FD039EFC64FFA4,
F0D4FE38EE6C0552F77D06BCFCD9F0A70DCA,
00020731FB5408DB008FFDD20B84FF3E0A97,
F62F016CF740F839F99EF9D7FF7400E700A3,
F413FBC3FA14058D090F0131027EFBE709EB,
FE01FFC4FE7E005D0799F7E8F5490403FC53,
05F203D10132FEC2F8D6F59EFE6EFB03062B,
F9D0FEB0FB96079FFD19F75002BEF17503D0,
FA3EFC8BF8A3FEC6051EF487FD97FA0E0708,
F76BF6BAFF52FA020AF8F707F9CA0181F855,
F7DF067E02A608D7FB830817093E05880556,
07A3F7290240FFAA05F605DEF5E0093BFC86,
F56305AEFF72F81DF5440718FDF4FA5FFA60,
071306A5FCE2FF04F7260467FF8FFA53EFE5,
FCC6017FFD53010BFEEAF63AFC370469FF01,
EF4DFDF4F5B613400E05009303C815C103C9,
F8D803C4021BFA8CFE61FF6F0656F643FDD5,
F86801C8FD5A0879FA98F5F40B31F4DBFAC3,
08FCFE8D02A8F223030DF9280BD0FB02F4AB,
FECA05ECFD72FEAFF689FF19F8DDF6F7F46C,
FE8BF94AFAE4FAF80262047FFBFD08F0F7B6,
FD4F010D018300E3F98B06D3033BFE3B01C0,
01C504A405C9FC9805C0F8C6F895FEFBFC58,
0817F7BFF580F885057E0660FA4BF6F401F8,
066BFC0CFC92FA9BF5530633FF5BF8B0FE86,
0497F6D6099301740526F9230052F9A303BA,
F715077A00280060F8F900E0F863FFB50468,
05E2FA6A01A0045F0648F76704B3FD17FDD7,
FE54F4CC03F201C7F723FFC60106FCA3FB01,
FEFBF6FFFA1FFCB4F6A9011FFF730049F03F,
006FFF37F93F0473FCDA039704FF0398FF2E,
FFB8FB790697FEBFF690F98A03ABF7A406C0,
FE1CF5A5FE7FFF5EFB87F838FB4209360429,
F70EFB25F953F5ADF9C4070B0A5DF85B01C3,
0FD7FD93EF68119FF9D2F8A10937F378FF19,
0B1B02E209A5F7A2FD15F0F6FEDD07E30542,
F046FE8CFF640466F2C9F84402AEFF31F52D,
F934FC8309A1F9D10659099AF98FF99CFE40,
ED5DFCACFF7EFCDE00F2F285F806F5EDF6A5,
FA4301B6022AFAEE010C024903FE038DFA77,
FE8907180605FD4506B30529089204EA06A8,
EDF2F776FEBDF57704A20008FB2404B8E8CB;
