memory_initialization_radix=16;
memory_initialization_vector=
EFADF9B7F66A0573025F019803DA0D4F0415,
F876DBB9FEC0F9B2FF29E73201ABF8970148,
FC9DFE8A026EFA3F0468E8CC02F00B7F02CC,
FF45F50D0537FDEDFE14FC2A0786F837F74F,
F8B9F9B7FE2B07C4FF81FF2A06AE0920F54E,
0475FDB20A950010FEBA0870012CE3DAF189,
FCF9F78B015406BEFC6606320698002BF0CC,
F99FFEBC040CE81A177A1374EBFEF95202BC,
F36805FA08E3FD8305CAFC1AF020ECBAFF25,
012BFBB004CC086804AAFB17FE9A05080036,
FAE4F919001EF6770BEA0852FB1FF798FB59,
FB6AFFCEFF92FDB9FF5F001903CFFFE7FFBD,
FE1CF9FC05FA063FF45CF909F8920435F9A7,
FB1005EEE93DFB65F85A0394FC7606A5FAD3,
FACDF926F71EFB17F85903CA024DF74EF3F2,
0000FE85FE2601E5FFA50000FB3300C10000,
FFBCF8E6084EF78BFE9C0D71F7E202AFF1E3,
F9AFFC290D2506F508C903AB0605FC5C0081,
EDA60802FE6CFE28FF41FEE9FA84F8D201AB,
FCE1033E169F0440F816FBF2F8D2FD82FB5F,
04B3FC0FFED80858FF56FBA2FBE0F8A5FBCE,
FFDA05EAF9960027F8930620F6D4FCF2FCF7,
FD6AF6920D88082A027FF4210148048E04E6,
FD60025805A9F88102CEFA95FEE900D6F79D,
036AFAB1F54D0324FDFF075D0D5FFB89F120,
03EEFE52110FFC8CFD3405D8FCF00838F7DB,
FAD7F669FAD00AA40C31FB7A0922FD6800F9,
FA220058F85AFB2906FC04FBE79607C90429,
F96902B70E7DFF69004903530AD103C8F9E5,
FCAFFD180407F35008990049FF3C02B7F9EC,
05B0040A00540035055400BEF529FDDCF611,
F9540744F502077B0452F782FB6C01E11248,
FC78FE4CFAA903CEF147099A0A3CFBEC0593,
FA7FFA1906DA0194025EF9D2F65A0AA3FDF6,
F89CFD4EFE52019B026D0956FCAD00081148,
0222FF960346FB7FFFC3FCAD020BF85FF5D8,
01E7FCF013DAF9A80806FC39083DFB4CF71E,
FDF2FDC803F706AAFF97FCB406E4FF1E02B9,
0D590D73FBD101BAFC19046FF159EC810489,
F8CBFDEEFA000019F2D8F679FBC9F523F989,
FBE3FBB9038C0669FAA6FB88FEF8FC2BF169,
FB9308600999FD240342FBFEFED8FB26FC2D,
F84BFA9A049702EFF190F565FD7EFD530083,
0769053B054A0B97FF55077903A005DA05E3,
FF09017CFEEC0856FFC5F69407E8FE1B007F,
00FBF639F937FDFE04E4F9AB01B5FA12019B,
00D5FB25F7F8FA8103E2004D0816067803DE,
01ED02EA0391F8FB04B9FDFF074D0183FD4A,
04E9FBDF03BCFF76FFB5FD81FD7E060BF82B,
FF12F1E5F9020553F86E043D054CFA070A32,
03B0F70DFFE7050BFAE8FCBA016B068707E1,
FF9C021E0220028902CAFEF305EE0143FDC2,
06BA013A01B70342F958FC86095608D00546,
F42FFF13FC7FFA9FFF73FF7F00F608C6FB56,
FFD303B4058AFD4A0275FB9FF8F2FAEEF736,
0814FB6502B2FFEB0421F4CFF9B5003BFBEF,
08C605CF07980B42F855FE57FC3D005EFFBC,
0707F68AFB1800E40206F9E80344F4F2F549,
F092F5F00184FAE704480280031102B706BA,
04FAFD2DFA9CFA92F6860884FB6B02C304A1,
0086066EFFE4023A002F033E0204F96DFA01,
02DBFC8DF781F843F9ADFC990460FF10FD64,
04B4032504AC075F0114F9E60533FCB1FE36,
FDEFFF80FDD6F85E0463FCE9FD5BF97CFC8B;
