memory_initialization_radix=16;
memory_initialization_vector=
EE19FEF9EF26F8A10855FE5A14AC05ED089D,
FADEFB57FB35F596E9D0F8EF09380445F8BD,
07B1FCD0F7CA02EFF5CE0082FC570D950435,
026305CF0DEFFAE70254ED1511311033F23D,
0641EC10F9590EF2F58C08E4FF6B01C3EE9E,
0D0DF7D8F43904A812910BA6F2F8006AFA17,
0544FC54FED50CD2F5070487F581F3CBF38A,
F4D702EA0C2A013CF0B9FD84070B0EDD0E74,
E03B0D91F9480C32FC5A1452FEC301280346,
0806FACE0BB2F8630FB0F79C0E2B01250B72,
FBBE050CF10C01740000F39FFBA90001FD0F,
12BBF99E072BEA1202D0FD09E236048CFFCA,
FE9701FBED6AFDC1F781FEEEEC81093BF996,
05DD023EF804F98AF11B1661F5D1060FF0CB,
E3C0062313C7FC590727F3CEF330FFA2F8FD,
F06B0A6BFCA400F90748F773FDFB0780F849,
FAA8F9E9F85903F0F5A9FD0E0309012103C5,
014F0EABF34C04FE01C207E1F772081CE5BA,
07EBF84F011B09C1FD34EE66038EEE6AFB24,
EBB800E0F7DFF9E3EC61EC56F1BC04B7E9C7,
F6E3F9330361F2AFFAA0FC95FCD9096CFBAF,
F004026201F1F46EF197077CFCCEFF0D02CF,
09B0F411ECE1F5F2FF74FC37041CF2780CF7,
1CEBFFB3EDE6FB82FE5E12F1020600D10B93,
0057122CF86008C30798EBBDF008D8E31A9A,
0B27EC7F065CFCDF120D06B7F42E0A0704DF,
0BC00112F3A103DEFBC1109D002AFD890B09,
EC6D02E5EEEAFFC0ECB1F86DFAAD15151592,
FFF3060D043F090BFCD5F77AF86AE7170FF8,
FD1BFE690583031B0B12F704F1B0083EF0B5,
081AFABEFA730EBD04A814C1FF5FF1DB0700,
04C210F4F5CAF2CEFDB5098AF74500B2009D;
