memory_initialization_radix=16;
memory_initialization_vector=
005308ACF0470C2D045FE732FA6F05BC091F,
05B008360659FBB303B60FA40788FC47F893,
005CEEB30839FB1F0A6204C1044B0BB409A8,
F852FC82FACCF9F704740583F926F94FFE8A,
FF8C02C9E7E303A4F6FC00E0FDAD0141F149,
0211EED3F77EFFFAFEF70214FCAB069A00F3,
FA28FEDD05DBFC05FFD70816F841FF5CF3B3,
FECAE462F48CF618F9EEFEE5F4B1082402EC,
F72106D8FE52F2DEFBEEF483F729FDC3FEB2,
F8D3061DFB490419088EFD0605490599F9E0,
F689015BF49CFABC0297FC2FFA9AF162FF73,
DB35FE0702BD0007FFFFFF7EF20600D30173,
E3A0F904EB66F6E8F6B10419F42B0370F2FC,
FD0EFB02FD4CF391FFAB0E49FE7A02CAF31F,
FA92E2630D91F6FFF1ADF69307540139FCAC,
07120000FFCFF95BFFFF0000F064F6560000,
F817FB2201E505BE095D0411F5101380FE32,
04D1018E09B1F4600372F848F65CF03BFC4B,
0B17EBECEC180AC2059F0312FC8A1F10FAC3,
FF72EE63065C04AFEE97FF60F5E30431FB8C,
0575FBD1049D042C07981F4BF4DFFFEA07FB,
083E0BBDF9AE0356067CFE2D03ED039BFEC5,
0846F1410092013504D4043BF22C03F9F6F3,
FE47040703AA030D07FCF07D042AFD60FA1D,
03B4074A065102C2054BF5A70031F876FAD2,
F7460371FD6DF221FFAEE9E1F502F2DC157A,
00B801ECECC603F7086EFC7DF630043F0049,
04A5F8F8007F008FF6B8FAE7FBDA0725F996,
00D4FDB8F5420188F25AF4ABF39DF644F9EE,
075AF5BA07FD0A0CFA29F76C0DAFF5800702,
FBEA0003052706BAFD4704C7FD35F3870464,
0066FE25FD1AE819F7460B74FA0EF8A1EF19,
01BBFBBAFFB300E60D160627F96AFC4AFB05,
F9AA07F5F505098DFDA6EE820404FAEBF809,
FCAF0872F56300730A97F8B5FBAB036F006A,
054BFBACFC4C0B88FEB9FC7C0786009B0235,
F29A02FCFAF3053C09330519F8FEFCC6FDD8,
0ABB11A8FD04EE3400D40FE4EFA4F305E9BA,
01DBFC140005FAF3F693F81FFBF8046903A4,
0BF900320373FE5D0378FEB60654F1BE09F4,
0253017BF0A505F7EF7CFDB9F093EB430AA9,
0412FEDB0B1CFC7FFF24046F07C702B8F303,
F85900C7F81CF647F53FFD1D0BC8FB50F455,
F9830475F6B3F318F84C00030545F364F7A7,
F516E5C2FFCAF22404FE0175F55CF887071A,
F6CF04D0082AFAD1F9280121F5DCF2E3FEC0,
064E01B60B09056EFA8503E30733ECC5FCFA,
02C7F5590750F5020649FD9A02FCEF7508DA,
FD73F2B2FC8AF806FEB0F3EDEE250A8BF74A,
EDB407E10D710333F2CEFABB04C8FC590B2F,
F57701AB0303FC0CF3800119F28EF801F43B,
011B045E0141FD9F007D04B402E3F680052E,
04EB061BF83D03760883054003F107EE080D,
FBF305F70042083C01BBF82BF9E20050F6FC,
F21B0667FA8BF8950195F28E07CA03C006E0,
058C03C5F1A50A42F45B0A54F45C0372F7F9,
FBA51F90091FFD7AF7B300050083F77800C8,
0115F4F8F3DEFC05FD1BF6840549F442FFEB,
F099FEEBF145F3DD13E1E126038C02D9F9E9,
EC39F6660A89F06E09DAF970F961F8980054,
09D3FA20FFFEF258FDA9000EF56AF4E3FDEE,
FFD8FAB2F6C20140093FF259FD1FF8DE0660,
FAB4F8DDFCABF92CF89A053400800622FC23,
FF31FB550331003803D2EE97F45C0DA6024F;
