memory_initialization_radix=16;
memory_initialization_vector=
F783F751EF6C0B6B07C20EE6F0A607A9FE7E,
0B6A10CA078AF567F8780973F81D051201FB,
0130FD08F1BCF00109F909F4F87AF3C3F4F8,
02C3F5BC1741FC010472FD79ED91FE2A00C2,
0E69092202AEFF41EE00F62AF20A09BAFB10,
0340E664F6A8F534022E09F7026B08E1F10A,
08C5FAAC0554034D0F7A022C04E9FD48F72F,
045B0404F3AEFC14F6A2083E0374024203A8,
072D0A92F2B2EE570ED8F550F9C903D80AC6,
FF1105730518F72104ED04F2120C0B53F522,
FC3CF70C10E20F22F9A101DBEFFA00000000,
F4DDF78B08B0032B10DCF6EC0359190403CD,
0AEA05A7F2D002ABF82AF85413940000EDC0,
F609F81FF0AA0B34063AFD90F5E91022F568,
F5FAF62AF5B20218F111F653079BEF7103A5,
F0C20C23F8A60300F95D0B46F27F05A70BB0,
0897FE1C00E2F853FA38038209460684FD7D,
FBB009A0EDA2F6ACF087ECD3FB04F3D504AF,
0FA2F4CE001BFECCEA99FFFA106E07081EAB,
099AFCF60837F734EB69021CEF6AF5CBFDAD,
08A6F1F6F1D5010BF780030A0E09FE5EFB47,
F5D00212F3F5F051050A0088FF30FDAC0139,
FFD902570F8F06230F05076204D70D80F81B,
F9A1F55AF76E0B10F3C3F96F0FC7025EF4AA,
FFE5F396F581F9D41100EC65F128071E01DA,
FAC1F836E510EEA40C632254F0B810290DC2,
EFA8F482E3F7FBDF0313F94600000FFBE7C1,
F68FF9B9F5F8EA73F4E2FBF9064BFDC803C7,
F6A1FA8EFE1B00BA05E100B70B3C0652F00F,
FF0E006F00840371F93008C5F525FE4BF5DF,
FB73FA86F083F7630994EFB80E3AF397FCD3,
F8D9FA9AF8F70B7702F0F8B7F3FBFB770E74;
