memory_initialization_radix=16;
memory_initialization_vector=
F2DEEE9F03B2066FFE09FD12E5DB0720F0B6,
0823F0A6FB7B0004FFA0FBF1020605E5075A,
06FEFCCE0EF40762004FFD72F81FF6EA0589,
FE70F88DFF36F6A908A7EFCE01230222FE12,
F9BBFA3305BF04E6FFF90090FB5607B0069C,
0702FC7F003B004FF21CF766FF93EE87035B,
074DFDA00125FB03035B012E052C08FF08C5,
F7D5E61EF30CF17DE339FC46F41802A20289,
FA340145F349FA40FC20038DF4EA042A0723,
06B90620F8B309E704ADFCD7F9E1F771F601,
041205950E3004F50723004604180F9FFCDC,
FD80FBC005830154013900C5E65DF701FA9D,
FAF9FF6C080FF26AF9DDF5CDF3E407D8F91F,
01B2FDABF5FBF1B2FFAEFEFE0507F977F932,
FFDEF2B00660F846FD5605B503740406F986,
FC80FE200191FCFFFD950000FA8AFB70F8FF,
03BDEE360608135CFCCCF4320BCF02E8F4D9,
F011FBE703C501C0FEAB0013FE4CFF0C00C5,
164BEBF101400F25EE8F044B093C03DDF75F,
106DF5D602530619F999076EFDD5F6CAF22C,
0415F4D209F4F3BDFADC124E03CEF644F86F,
FE46FBE304C5F8210135FCF4FF6D0875FDC4,
0144F82F0B18FBFBF8C5FC30F5AA02DDF729,
01E2F87104F1084B01E40EDFFCEF0C460745,
F66A00B60390F821F552FA170861F59CF77A,
0060E9A21A6E0CCDFD0B102F030FFD7CFA33,
F53902B8F340F8F804BFF6D7F788FE88FB64,
FC4DF991F925FC450354F7D1EC88069AF4D8,
005DF5740A1BF71902E1F1B9085EEC470621,
0A8F02C4048AFDD9FF14F7F202E0FF74FEF4,
FFC7F96E042000C0F74702BEFBE2FD24FEAE,
06E4FB4AFFB7F672FF4AFAB6FB2001C0E6A3,
F83BFB50F921F96FF554FAAA06D007D6050D,
044EF80806FBF5C5FBFB01BBE6FDF130F86D,
05C2F90EF8C2F29804D20762FEECF56507DF,
FC7004BD0268FA48F6050130F2F0F8A2FB3D,
F84AF9B1FACEFB1F036FF7A1F5C8FA750736,
0C6E02DAE4BFED1F247EEB1DF6060CD103B6,
00C6F99B04640D92090AFFB809E302C806F4,
045603CBF8890317FD2A03CC01B8005A0017,
EBA5F2520F7A01C306B60B0A01DCFEA0F5C2,
FE31001BF91108C3F8D702E0FAC4023A0028,
F9EFF2EB052FFF2DF98308DD06FB00900142,
062CFCC6F788F589FDA4F448F48CF43A03AD,
F5D7F72BFA70F4930B8F07DBFA99F5C3EFFD,
FA31F2780134FB75053103C8EE24F993EF3A,
FB45F67D02320444011D04DDF8F303CB0730,
0149012EF2B9023AF8ACF74EF25EF17B07D4,
EF0108D1F5DAEC6B0000FE98F5F4034907C4,
F917F5DCF627071903D7F79E07500B7B09C3,
0547FC37076CFCACFE2D021A0809F9C1F8AC,
0A15FCD5FFB1F967F71C04231149F965EEE2,
FF130BB706040DAE000C006BFC83FAAE09BA,
0592FCB0074DFC9DFD840010FEDB07E0FB1B,
F5C20578EB54F56EFC68F54B046005BA05F6,
03A9FA8FFB16F63D02E2014200A7F538FCE2,
F68607CAF974F1FA148EFE6EF22DFCC30909,
034D02B2F75300210472F81E032CF4D4F97C,
0282E781FB910A6C10B4F72CF865FC81FAFC,
0367027909ED06DAF9E6FB67F74DFC3C034C,
023B0465FD38FCB3FA00F6E102C1EDD30896,
FAD1FA7F02DE0BECF917FBC7F1D2F243FA3A,
01FEF5FCF65DF897F8F9FBD00567FF92FA45,
F57AFA2601AE035EFD0C00E3F256EC0C0C62;
