memory_initialization_radix=16;
memory_initialization_vector=
099B0B161140F02EF749F38EF27CF59610FD,
EBD90072EFD2FDE2FEE8FD74097D0FCDFDCF,
0D5DEFA503D4FE91F5F0F84E0176015E0935,
FF07023EF63EE79225801999FA7FF8860218,
0655F1C8F074073B0CE6FB46F037F9D9F712,
00C3FE96F85EF05301BF0A7A045FFE87F36E,
0A7DFF23000301B90A58F2D8FF9FF32C0228,
FCE2F71F1D7E0C71F58CEC77FB9308D605E0,
E1E812971650E7E30038085FF8CF00000002,
FE9401A2FCEF02520C98EF6DF98F08B2093C,
080AF42BEB3A09960129FE5EF7D800000000,
101C01A5F8F40C710A4706320E7902060987,
0F22F49AEB09F85C04B0FD97F4CF00000000,
00C3F6F5E84704560F63047807B00ABF0384,
065FF6A2F655F53AF5502729129313BE23A6,
FC79FA150A0A0C7F060EF7940013003708DA,
04A1091F04B304BD06650225FB65F306FE9E,
EBF6090B037DF57B0937F7BCF634F31C0638,
0FA70A0000000195043EF681FB09155E08BA,
0B44F6E406440384FCB1F974F4F2FCEBF20F,
F58AF22400ACFBE3F62E0440F2BBF9F00510,
E0CFF931F3B6F6E5FF41FBA207B3FD10FFFD,
05D906E0FFBDFF3FF62CFAC5FD8601BFF509,
FB4B02FA1329F5AE069FFD5F0242F9E9FA1B,
F199164E038AF80D066501C807A9062BF5DF,
145801CD0B25FD580A370759027109AE11C0,
F6C8034DEFD0FC890197EC9E000B0000FFB3,
0284F7AEEE870276075C065B0BA106E6F4E0,
F5FEFCCFF61A0E0C0A0E029E076E0D5B0B72,
0267031A0AE1EED6F1D80A9DFA8FF74BFC97,
FA600021F71811BCF0D6F94212CB059DEFCF,
04F10F0EFCDDF2100A1A12DD0829EEF30789;
