memory_initialization_radix=16;
memory_initialization_vector=
10330DCA0B6D072EFB6E0B95FC910BA212F2,
F9D60061FA07043DFE450447FD4A0B050959,
05FAF6F8F71104EA04EF01D409D0FA3A04B7,
00C0008AF0E00068EFBCF637F3B8F62BF5C2,
FF9B0825E9690692FFB4032C02E7FDF4FA9B,
ED59EAB005AE0000FC6FF9F0FFB0F833073F,
051BF85EFCBAF6070BB40315001605E40661,
F4A7DC6FD5ECFB3DFF921861F5690D220D35,
F69AFEC0F85DF4C7F5A50417FAEA04F600C1,
0B3A061205AD0E0D08DC052FFCBC00CD03A6,
02B90534F97F03A6FEA4098504C3EF2B0791,
FFD9FFFFFA4C0000004F01A5F854FEDC00EF,
FA310A1CFADFF2F903CA0DA4F5FD00780183,
E7ABF90CF446F3180693FB55F20F041AE6B2,
F5C10FE6F80DE408F679EFA71323F579EA61,
FE04FE47FE13067FFAFBFD92F95B0AAFF6F6,
F733F97EFD80010B0678ECD7FD160D00FEAB,
F45CFA4AFC42ED5206260E9AF781F0D6FE6B,
FC0ADAEF0451E0C51C571C53002104C5F3C0,
072CF86407D5F5CDFB3F0891FC4DFE26FD30,
0BD8F981EBDB0CB2F549127D0A50F681031A,
06960D03F7BAF96FFCD402FF05C60B03FF09,
F964F9B2F649078F04E6FFA2F68C008DFF16,
04C704E9FC920E21F5A0F777FD99FB96F83A,
09410862FB7F013904DE01FCF64D0734FB49,
F29905F51244F7040064047200EE01030FCE,
053101FAF5F6016FFCC2F867FBF7051507EA,
046703F102370043FE42FE65E796F6FE04AD,
042DF713FA03FE4AEC4DECC7016C13ECFDC2,
FB6BF706FA24FD16F833F342F8ED0104030C,
041AFCA7079204B6F8A100030AFCFAC8F769,
ED4F001B0CB8FD8AF0A8F861009FF8EC0371,
F9A00BD801C8FD04FCACFD20FCD2FB15F5B8,
EDA70CA4F0FD0979F582F4E80A09037EFC87,
FB2F042300B1F72B05D5EE610203F0A0F9D2,
00D80763082904040A3A0080FA26F882FBAB,
006BF6930604F8B5FFD303EEED1C19A20145,
F8D8176C0E4FE92BFB26FBCBEB14F331E8DE,
039501DA00940604FCD6FAD00754FE7BF6F5,
0E4F0823EDF10395F0740A610188FAF3042A,
02A70614F7A10044F30C0CF800FAFC3DFD5E,
0AAC026FFFA20B1AF88C0354084501F8E989,
02350B0EE59AFD19FC70EEDFFFFDF550FDBF,
03EEF751F889FA7FFEC1FAFF062C000C036C,
EE2FF2D9096AFCF6012404A406AEFF4EFFDE,
E969FBD8FF14FB13F699FE1DFE63F61DF53A,
FF58FE130DBDF91CEDD0F8F80F11F1DAFEA0,
F7EA091D0C770092F7D7F75B0E800AC508A6,
02B60F22F729F8BC09AEFF0D02780864F827,
0023FC0DFEA3029D082508FA011301900077,
01D200D6E8E40573F898F62F07F5F79EF7F4,
01540281FDE0FFAB01B300F0026DEECF0413,
04020562FC99F7E203FAFED60E1EFACAFE61,
079A02D202CBFD240912039E0814084D0056,
024200B4FD9A026E0574F88911940AFC0207,
F268F766F5D8FC79FCB0105DF917043AFEB2,
020E03C6014705A70102FDE2FA9AF901EAC3,
F6960B58051111D8FA7103F8FB300A9EFEF3,
F2C20504EEBC0BEDF6C4F1B8F74EF7F0E8B9,
FA82FFD903E9FE450317FF0BFE1C01BAFD61,
E6E2F98F0004FDD2FD11FFC8FE1300C2FDF3,
F388FCC80C86FF97F815F496F368042AFC11,
FE80F162F200FD84FE87036DF208FE0EF0E2,
FB2A064CF392FB05FEFC10FEF69002BEFE33;
