memory_initialization_radix=16;
memory_initialization_vector=
EA16F485F6A70F33FDD1056B0B81F8D406F3,
06FF0AC7010C0149FBBAF532F826F6F0FF22,
EF1C15B606BBF6E70884F29A0665F412F9B0,
E9F608C1040BF8C10E93058005E4054CE882,
F395F37C0340FD45FFD1F3760B6B066EFF64,
0AE2F5E1EC14F53E06E9FA9CFCA8F045FEC4,
128507CEEFA0FF9AF90DE8B200BAE99EFCE6,
FEB4069CF4EA05EBEBACF46DF234F9ACF6B2,
EA690674EF9A0879F53704FFFAD1114E0A75,
F6AF0295F444095E0088F713ECE6017AF09C,
F1590C950897FF4D080CFA700267FC76EEF9,
0471FFFB0CEF024E040AF8AEF1370606F486,
E6750122F745F4EA080F0E94FC0E02AAED56,
0C1AF2F30C01FF97EF8E017B0CF5F256FEC3,
F947FA11FB910CE10238FFAA1394E988ED26,
045C08F9FAF10DEC119A01AFFC9F0BDCFF20,
F9C80D210184FC4804C7EB7DF47804ACFC6A,
0C15FBFB067EF8BE0126F4FA043BF4F7EF9E,
23120A7FF7ECF6B30D1303BCFB72FEE60388,
FC970CC8F402F2CCF830FBF51526F7BFFF4A,
0A9108AEFD73F7650B5F0C3DFB6DF005EB7E,
007104F60B13FC550523F411FECF03C8FC73,
1896F577F9ABF34AF22106CF0412010A03C8,
F585F777E877F85503BDFC86F77AF32F0EE1,
0427037EF99C008FF9F1EC5BF5E109201176,
0387ED68FB1402420865F76903D304CEE1D6,
025C0F9DF743F5D6F6B2F45B0161F0040398,
F8F0FD26F0E9F9C401150967F306003F0ED8,
ECC70348F873F43DF3A7FACF04D3F60DFC8D,
F6B6F75E0330E64D0E77000AF4EAF581F645,
05CAFF090950F7010D7A0ACAF26CF7550517,
F369F3C7F56AFF420BB10716F564FFCFFA56;
