memory_initialization_radix=16;
memory_initialization_vector=
0B8B029B001FFC1AFC8A0AA6FCC805270E25,
F192F7020825F36BF42A04D700CAF6D9F1BC,
FFA601CBFB84FE80071501E1F3F3ECBBF4AB,
0031F86703DCFBD0FFC4FEE1F941FE2EF355,
F10EEEDA0214FCEDF3B9F5BC017E0877F51F,
F4D7FDDAFF33F6C8F73DFE4FFCDBFF8AFC2B,
FF53FDD8FC81F2F5FEB4F9CFFA8A07E1017D,
FD00EC8BFEDBF51FF86509ABF056167D094F,
FF9EF79902F502D106E4FC5209C2FCDF046F,
FF13075D041CF38C003701C60149FEFF002B,
04B201D3F9FBF6C0FF58FDD3F2E8FF2B0135,
F924F679032FFEE9FDB100840271FF13FE01,
FDB2F3D20057FC6EFC1AF4D004D900B1FB66,
EFAF0160FF59F84F0054F32CEE8CFB00151A,
F72B05BE05E10683013B054CFA6C0225F685,
FCC7FFE20036FA79FFBFFE4B01060348FEFE,
024A02C2FA3B07070416F762E2840DD30796,
F267FAE5F71AF14AF505F96F074CFC5603E5,
0788FE2C0001E697F1DEEE78E816F4B7F259,
F87AFCFC0208069FFDE8025C0760F367FDA4,
05D502A304ACF512F28F18F5F965FF25F243,
F3DDF809F300F7D40480F6DB04BA00CEF58E,
FB9F022A092DF16EFAEF067DF53EFB7CFA3A,
F3BDF6E8F5A8F9A6F60CE9BFF0E40351E884,
F8AEF17EF5750742FA84F6920573FDA1F813,
0262DC88FC170360F544F8C009B0F31B0CDA,
F909FD0AFCBE0A3CFFA7099CF8F000E6F7CE,
F69C065BFC2EF444053D011B00A502EEFCC1,
FD93FA7B0620F9650DBBFC94FF37FAC10118,
FE27FEABF2ABF210F9E0F86FFE77FE6201E9,
F78A046DFA6306280324091F0504F8C40841,
FE22F65F00960685FD610785FFB402AE0296,
F49BFD53077CF957FE1E032601360685003B,
07900754F638FC8FF735FA2F042C06060895,
FE5C0112FA650CBBFD78F9CDF3D40682FD36,
FE1F04B3072F054E050B02ECFC98054F0125,
F64CFBEF03B600820504FFACF808F959F699,
FB19F451E8D4077EFE7CEB87DB9603FC09BD,
F8DAFBCA005C0458FC260191F937FE0802AC,
F686F348048FF4CFF8DDFCCBFC93F7A2F64B,
0114FCD613F6F9B1F84CF959F3B204A7F76C,
08BBF3D1FB1402E0EF7002100F6E02D3F561,
F6190D7DFF33F8A1019305780A17FA59FD0C,
0933FB5D076100A3F8C9FBD0FB1A09FFF6E9,
F1CFFBF9F3C7FF01F648031CF61306780333,
032BF713029DFF51034D00B1F39A0043FD7A,
0020EF7105650601033AF996FC27F6EEF36B,
FE89FB95F4BB09C8F4D0F267062DFCE2F76D,
01C3F7CF028EFAA7F44D01D4FBA80EFFF4B5,
F6BBF5F9FB7AF1EEFBE506C4020400C8FEA9,
F4D2FD9DF39AF8190A84F91AFA23063AF8D6,
040FFF3AFEE50B5D01FF0510F1EAFC22FF05,
029A01D109B3F90A00960217068E01950168,
FA6AF55D04790877F7D208D50347084FFF4C,
008C04CEF318F64D0163FF82F89A0050057F,
F64A0900F0BB024BFEEF01E8F698F81DFF23,
0ABDFE43FCE100C3EE2CF90BFAC3FC16FF81,
FF9EF5070B2C085307BC0188FC0BF2EDFAA4,
FB1BF7AAF4CFFBAD07E1ECBBF904F8D9EFD1,
F757F8BE03EAFF1EFA9F01BAF770F96AF270,
F0EDEB69FF7DF7E8F2A8004BF82A0300F925,
0437FB47FBD6FAD8FB92F9B4FCD8FD7E002B,
FF59F9D9FFEF04C5F9F3F300F9FEF9C7F2B4,
EA47078DF720FC0AF36F0B07FF8C066EF488;
