memory_initialization_radix=16;
memory_initialization_vector=
065207F8EBD301C4E547EA01FA5BF3A5F1FC,
0A74FD1FF8FF084F05B5FB01FFBCFED2040C,
FAA7FE730409F94DFE5BFC20F97F0829018E,
FD78FCC6F5D3043AF7DDF7E203EFFF15FFD1,
049508141B0CFA33F8650AA704E40768F3B9,
FE80FEFF012CFB39ED2EF4D8FE19F66FF72F,
F25AF3E30212015E025AF46AFCF5F8B502C9,
0205F6DA10B3EE0808FD0DB2E621F2A1E98D,
F8B6079705C3F9C4005AF4AFF9DBF65CFBB6,
F7F7032A03A808EDF953FAF9F72D0704063E,
F975FA2B0142F7B4F8AEFAD4FCA3FE61FCB2,
01ADFFBBF8AF02C7040B03EF0A79FFF5F72E,
FC58F913FAF4FEA202E2FC09033EF8D5F77A,
FF63FBAB08A900B7F77FF5DEFF2FF3A70677,
1799EEFBFBC5016804A802C003ADF5EEF957,
0000FD6D0169F717F9BDFD9708EDF81BFF76,
F57AFB6300B1F9FF08F302AA102101900270,
02F1F929EFF3FACF0C5F0523FDF4013DF34F,
FEF4190D043A01B911AEDC47FE7CF2E9238E,
046704FF058D0A9CF80708480C8DFFC60210,
14E600A5F24F1190FB73DB960934FDEC0194,
0104F71F03A5F6AAF1FB0184056D0E01031E,
066A024F07C60662FA6BFC49050CF814FE66,
03850EA5F7EBFB50FB47F46D10F306310186,
04A6F66706B4F55CFCFFFEEE091B055A05EC,
FCCFF54C1913016903BE07320BED02DB00C5,
03D2FD8FF34B054D05710323FE2008B30119,
FECFFED9FC4502EE04F6FA37ED22F69C0F19,
F8CFFA17FBF90A2A01F803690547FEEBF479,
0436009FF579001007130220FF4800160927,
05B2065EFADF036601080937FBF0013C01BB,
F653F56A081805A8DDB0F2FE0637F87CF19B,
FF53079EFECE0951F8F00C15094EF64C0821,
08A402370B320B4F0641F61D0509EFBDF705,
F5CB056E076CFFD8F9EA01F9F3D80CB607EB,
FF25031808B3FA75F2FBF38A0293FA2C0738,
FE4200AB00A3029704070002FA44F0AAF84E,
F68FEFDBF16DEC4607CBF8D7FE89F81E016C,
017407BF0393FA470058FFA204FA0625ED5D,
FCB405FC05F90A1E048FF767F78503940925,
1B70115D0522E7890442F80C03870356FD39,
F3B70089FE95F7C4F6650905F592FC560665,
ED320B46EEF50099FD7EFB3AFB90F5AE097B,
0194F8F2DC410925FF54F855F4B6F201FB2E,
F15C017F04F8FE12F79CFBF6FC9BFEBC066D,
F6D5FBFDF9920660F57D02C1FC77F728FF45,
FEECFBE111C7026E08E007B3F380F6CD043F,
FE59026507D4F4F00254FCD7F8C9FBB60A11,
0828066FF7100780FC0BFFBAF14FFA3000B4,
FD4803D707EAF3E3ECE2F377FBF6FA83027D,
FCA4FF44FAAEF294F860F9F7FA08FC13EB38,
F9910000FCB1F4CE00150044F264F2F8F65A,
00B5FE24F4CB0305FC44FD5F0195F809EF90,
FC6201F6F9DD09E7FF4DFEF50413F93F00BC,
06F20621035301D9060B071AF647FB3DF921,
00B4FA8BFBED06FD04C2F72AF352013F0063,
001802E40D58F09E0575F0CAF5C1EF1B0891,
055007C5F88E006EFBACF0E4F91CF9D80260,
F2B9FB4A11E0F12D0BB80FE5FABB0808016E,
F711FC580028F9000344FD24F8FDFEB0FA32,
FD4601B50000FA77FB9800F9028204EFFE7E,
F930FA1AFB35F1AFFCC4F78EFA190231FFA8,
051CF88F0CFCF9C2062DF859F3A7F7DFF893,
FDC9EF690CABFA80F789F14203BB0181007D;
