memory_initialization_radix=16;
memory_initialization_vector=
F2C4F5DCF883F8FC03E0FF58039904780617,
FF0BF402FFFB099BF635008603EB03EB05B7,
FE190035FB760668FBEFF88E037E000BF891,
EF11F728FFDF047703E3050B042100F3F356,
F257F012FADBF930F4430514FFCAF767F69E,
D8E7FC260078FEB80000FC32FF67FD3BFACA,
F426F00C01A501F5EDBBFCFB0506FF3D0328,
F7B9FA6B007BFB02FA620000005A03380000,
0178FA3AF9A3FB6CFA69FF56F5E908F50E15,
0363FEA0FBA20098067F01BEFD990D87FC7B,
096402280EFD00440174F44D007CF85C05F7,
0D24F143FE65EDAD008BFFCCFBC5F95C00DF,
04E4070DF532004AF73FF6D700BCFEE8FD8A,
EC22FA3CF7910EBAFFFF00A2FB050213023B,
01710722FEE315C20207F468EFBD021DFC77,
000000000000F42C00440000F5F5FC700000,
136BFC4E0173F3B102C8FBA8FE7CFBFADE08,
F79EF44AFDBAFD810B29FCDCFC3802A500C8,
2AA3EB8A1943E5240D45FA3AFB60F37AF90C,
F66EFB510600FEE4F285024B044203640F9D,
F6B5F933FF05FCFD0B94F954F13C01A90432,
09E8FE79FF26F4F701E2EC9EFFC6F28CF9EA,
0103F68BF95B0CDAFFA6F7CCFD2B04C4FD2C,
FB09072F07B200F3056F078801630584FC72,
0292F929FB5A01EBF429FB78F5E6FEC3F998,
F915F5A8FC01FACA004D193EF70C00A501EC,
E1CA005DFEFEFBA402A9FE4F0026FE2F0018,
FFF4FC9B05DE0010F83401F3F40AFDB80317,
FDEAF9DE07C20CCE01000C71F8CF11A80225,
05BFF9E0FD7BFF07F8BDF11F003A00C9F715,
0656F83D0531029AFF590305FE0BFABBFEFC,
F0700B33EE460A2B00A5FEA8F8F40AB6012F,
EBC81B4F0BBEF4DCF9ACFD90021CF9BF03E6,
F302F1A9ED11F8D400A4F860010C0B7EF202,
F87EFE03049EFE8D02F2FC03039302130069,
FE2E026FF620F575E0B1F73FF0CAFC38047E,
0722F6D9FD5CF8C0045B04CF0DE414020420,
054FE5D910C4F029FA2BEE2BEF14EABB04CB,
F71806CEF762FF81ED87FAA5FB2FF5DD033B,
0723F29CF925F558FEBA055FF7D204060CA3,
FBAAFD870C490328070BEE79F5AF0C280D08,
0629F7BBF856F642FA3FF1FCF34A00F103DD,
0EAAFE5100B3FCAEF778EE1A0046FEBDF716,
F874FCE301770B3201C002FAEED4FAF202FD,
04C6FD86F8CD0A4301CBFCAA06EEF47F144D,
024DF9CF080907B4FB10FF910147F965F62A,
FB4BFCAC00EBFED205D5FDE60B30FCF301D1,
FEA0F1690445F0C0FCDFFEA2EE000CD80050,
0D970A39F69DFF1BF028FE74F7D9FC80F441,
00070000FA69FFFE0000FA920C700279FD79,
F929FC26F023FC48F766F5E8FB66081201F6,
07E806B7000002A8FF270000F807F61CFEF8,
FCFF04070242FFB4F943FDEEF8AFF869048F,
FD3D0483FD4F0517FFDEF948025AFF9109DB,
FC2109F6F82805E0F44E0B53FE51F84EFA57,
FD1C0279FAEEFA9D0498FF0C06380475FEB5,
E43CF970E893058CF81218B5EC0E08A10444,
04F801A1FE1F0056074B04E0FA00FC2DE6A3,
0548FB8600CE03400318FB7803C719E3FFB6,
FB4AFE29FCB0FB6EFFAC00000670FCA0FDAB,
0140075FF548E74CF2AA0013F7B004FFFE14,
0D7CFE120114F5C1024DFED908C50C1FFDDB,
F6CC148E064F0002051D071E093500BD04EE,
038704C4FEFEFC590391FE5AF72E036EFE48;
