memory_initialization_radix=16;
memory_initialization_vector=
0D4BEDDC1A85F6A3F36205F00EF70123F104,
02B8FE3308B90D94F4A7F156F46E03560247,
0394050506D805B6FE67F5BA01450C7CFEDC,
EFAE0B22042405F90D7D0DE80F5FF40AEFD9,
EE82EF72F4A8FD7D0135007DFFD00CD7043B,
0B38F8140495088BFE3FF220F953FC9CFFDB,
FCDCF4A20102F0430DFFFD93F0CFF9D9026D,
01CD0813FB230109FF96F71407BBF50FEF82,
E7CB0F09E14AF88901F60865F80A05A6F7E6,
0878FDE9FC26F8DAFB430068F96AF9950E94,
1287F90FEE38015A02E7FD6AFDA10103F6C3,
FC3208B600540D0EEFD1FC2C03500AC808D0,
FF4DFB4DFDACF8F20496F5F50405F17203B7,
FAD308CEFF8EF0EB087C0A91FA75F742F57D,
FBD0F2FAEEE701D20424F7CFFBE5ECB2F7AF,
F110FB73073F0336FE6503C0065C032CF64D,
083305D301EF067CF5F7F8B1F9D3F4EC043A,
F394FE9CEB99FBACFB320005F346FF5AF4CF,
0C000E470B200755FA23F52FF726FBA5F3C0,
02A30B70F6310D1F068109F1EF370086093B,
0A910D1202C9FFA50356FC3A0C17065206E5,
04B30A98F6ABFB180A4CF6ECF83903E305A7,
1A21EA88FE38FC18088100F500EB0329025B,
000EFDFFF4250021F583F909FECDFB45063E,
F486124DEBA6EA5D02F7FCBE0AD6041E14D1,
F503ED77FA350A5AF830EA3CFF2508C5041A,
04A0FDE70A98F71902A1FDF3033A03000397,
E6A9EFD6EC7504ABF3B6F20CF16700FE158A,
FC750B4DF904FB9BF3E4FC37F928F4BBEFB7,
F21A04EFF4BF102A07D4FB6905A70493F461,
FA230C20FFB60854EF7C0178F354FFF2FAEA,
F900FE6F0DF3EFA307D1081003C200A4098C;
