memory_initialization_radix=16;
memory_initialization_vector=
0916F8EE0A230340FFAE0AC7F85B0557022A,
FC4105E9FDB7055AFB98015C05A2F7E00019,
07F3F6420332FDAAF7E909A2068AFA74032C,
023705D7FB32FAAAF566FFBAED32F9E603A4,
FCDCF6230B3504DB06A8FD4CFE7AFDCBF315,
086DF303FD49FFFDFB8CFF69FCA005C207FC,
0432024EFF2FEFD709C80322FC61FC2C013D,
F1B7001A0CB4FA7FF1DF02DDFF77F79E0490,
F6A4FDA9041D0383FBB4FADB05D1FB7DFA3A,
00AA07ADFD4DF6D7059C00A70815F89CF914,
F9EC020E07D402C7FDB307BF07E8F85100EA,
FCB1FCE600D202E503D302FA010C019002F2,
F1DEFAABFC83FAA600FC02CD059708D5F8F5,
FCBD0304F9CBFDD905F30878F9FFF94AFBBA,
040D0655DDDBF8E3F784F690FE6A009905CD,
FDDFFA480122EEB0FF48FE3F08F9F991FBF5,
F342ED9BF7BE08170185F645F4E105920077,
F408F643F658F9FCFD13FDA20681FB9BF48F,
FA53F5F00BF5FE3606D5FE6A044EF154F5AA,
FF80F6CE0A6102FBF894FE7C01040606F928,
0042EE9AF9D70D41F6D71DC8F8C5EC100C9C,
F7AA02EC0472FB2CFE6AFD50035F044E01D2,
FF8D07B8F712059102B1FA4D06AD03D5FDF1,
0660FBA0059EF76DFD42FACF0BE506FDFA07,
F662F821006601AB0412FE16044F088C069E,
F9E8FBDEEF56FF34F7CF07E300BF059AF031,
F6B6F767F77BF9E400AB0279FCE0F8C10233,
F826F71EF716F9ADF9AC04ACE35CF52607A6,
FA8D089AE5A001B601D4F0DFFE3304DDF1B3,
FB9102FB0887FD54FDD9042407510B5EFFD5,
F6B0F9510288F6D905D800D0079AFBDCF78F,
F2D407C5E905F4DEF7B3F28D0B0FF737F8E1,
F952F5F4F6E7FEE805AD0737EF9DFB10003E,
FBEB0A70F4FE02CBFF2EFABF09AC08EF0492,
FF17F4FDFCCC096C071FF1D1065B0D80FC58,
FD8BF6E5FE8AF8CCF584F74AF925F60600A6,
01D0FC4D077EF66FFF3804E805350B1202C9,
0AC4FF55FC2A1CC4F488058315580933FD2C,
0241FFE6FE520516FD050BD00096FFC2FE5F,
02E2F537FDB600FEFC1806F4FE3206750059,
10620825FC96EE1700ED0321F83B0792F72D,
02C2FC1B0AB106EFF9A706D5FEDDF3ECF552,
00E2FF2EF143FC14F6BFFD39FFC20A89F904,
0280F5AAF171F065025801DFFA1E00DCF6A0,
F66EF97601B20F9700C20A83FD5D03BBF7F5,
FD8DF02203F20824012501CF06CB0831FA02,
FD97046A0B97F8DC06B9F298FB15FEA3F7FC,
F454F8D0F710F401FAB1F677F8A91536F3D2,
059EF583F615018DFC77F95B0687FE0FED31,
F968060D046B0AE9F95905F7F988FEEEFB15,
04AD02DDF5C705A8FE0D0216FF1FF74BFC92,
0C23F79A010FFF1CFCCB01E4FE0AF513FB3C,
FEBEF64CF8C300BA0587F62B021AFD7AF5D9,
FCD9FC1DFD5600140793FA23063802920751,
01BA097DF7EBEBBEF518F58603A80D6BFD2C,
014DF93D0135FA600257F4B4FACA0548F379,
01A1F73D0061FB75F2E5F5D1007E019E0046,
06A2052FF83FFC33FF52F200F511030BFDDB,
F87B0DE1095E0832040FEA930A82F68CF77E,
F3E20555099BF7E9075BFDF9FEBF01F50602,
F8C9F694F8160885F752FCD70985FDBFF078,
F939019704BD08DC06CCFD87023705B5F99B,
FA57F55CF859F6C305BD08A40AA0FE29EE65,
F9BCF9EFF5B702CB01F8FDA6FA11FB80FB6D;
