memory_initialization_radix=16;
memory_initialization_vector=
0AF401A803290A80FDA10CA3F8C811180A5E,
E42303E10CE3F160ED2FF837FBEFFF700394,
03300365F872026701470275F9C8FA0801C2,
F8B601B40563F589FE84F97204A20B830B86,
F63508D20B320273FF60EC260081036BF11F,
EE47FFF80731FADFF61E03B3FD90F25003EA,
FB12FF85071AEE82F8840981EAC5F1D8E99B,
F7270503FE68F8030754F872F9EC069609B6,
FD16034B030C012F00B8EF6204E9060501FE,
F620069DFE8DFD96003B0576F25B0C200250,
005E078E05F400EF0591FA20FB1A05000A87,
FDF1FEB2FD7E0134FDDDFB43FA1500BEFDD9,
FC5F0B0EFBA7F76F0672F9D70410F91EFCF9,
F8E2F551F2F403C7F39DF156FD200A48007F,
F9A003D5E6EBE694F63C079EFD0AFD59FD4F,
FFD2FDF9FF06FEC6FDCAFD73FB07FD75FD36,
FA30FBDDF84CF155FDD6FEEEFBB0F936FB60,
FA86F66EF96107BBFF2EFE56FF8D011FFBB0,
EB2DFD15FB7AFBCC11B0EB6207ECFD97F1B2,
05B8041DF4AAEB93EBAAFB2BF80AFE7FFB7C,
0ED7FC02F6ED0030F58C0CADEA59FC350074,
FC3403B0F52005C0FEE7029E0456F3EE06AE,
060501A605C7F69FF443F8D50577051604D4,
0333012100F1F9CAF358018D01E4EA300C07,
0214EFE7FD5FFE26F56903D8F739F91C01D2,
F420FE1DFC130FC2F79EF8790FF3052FFF0C,
F402FDD10563051501310269FDE0F751F40E,
FA960621FBCBFF1A03ECF59EFB8A03BEF4A3,
082FF610F989F634FE1F064C025FFDDFEE46,
FD1D0AB6072A09D802C4F491F5EC0534F441,
07B8F885FCEC08B007DC0413004EFDCA05E5,
F801F62007C4066AFC45F6E3FFD4EDEEF7B5,
FF4CFB61F849FE41EF52F1D0F222FC270A99,
FA7702C4F3D9F5C2FA01FDD9FBC609BF0331,
0942F62A07CEFD4B012EE9EDF9E50011F7C1,
09750991F7160415FABF01C0F2C0013D02ED,
F549FEA507CFFE39F128FCD201BF109AF0E4,
114C08DFF8370B93F0C3F68103EFEB77EF52,
0627FA5AF7E504A608CF0A5AF6AF04EC040E,
0B81FD0BFB50F9C2F83E08ABF0A705AEFBD5,
FF660243FD63FAEBFB1DF745FB8504920851,
FACCFF1C07D8018DFF39FA6F0660F980F094,
F7D8FF65F7B1EBBBF7F6FCFFF64EF6D90879,
F8D7FF7EEE57F2220365EEB4FFB9FAECEE76,
F518050005B1FA060059F95DEE24FC40F6B9,
0418FD10F68D08AAF22AF12B070402A3F9A8,
F50AF1070740F52EFA47F98CF70E048AFDCD,
0396FF1F0394F81C014AFECB006CF707F75A,
FC84F48EFB15F14C040803AC02BEFC2CF964,
F714F4D6F97903F2044F0386FE940259FED7,
F75A02FDF1D4FD7606E4FAFBF75EFA41040F,
F751FE8CF9200146F987FE011104FD37FC79,
FF2405D605DD036FF810FEBF08DBFF63FB50,
FEF5F38308DBFCFD04F5089B0AE2F69F00F8,
F704EBDEE2930125FD50F8C00E75F9D40132,
02DFF7D3FF6CFD2DFF7A0332FEB5F8E6FC09,
0A5FFB88F3C706FB067EFEEEFA0E06D0026E,
FD7CFDCDEE05F989EF78F53C024FFC7AF306,
E75308C40C4CF76D0776FD94F6E0EBAFEE91,
00B703C50A0FEDD4F6EA06F0F726F5B8FAF9,
0167FD3DFE5DFE4B014F0340F1BC016F01C8,
F9A0F669FBD8FDEAFECA06DCF2D0FEA7FFEA,
04A3F7D80989F8790371082CF7DB0328E9E1,
0BBC0A38FE3BF50DFA17058FF6E8FD63088E;
