memory_initialization_radix=16;
memory_initialization_vector=
F710F236F84A00160298F27DFD3801F0F950,
060EEA0BF421F5520029E11E070BFA9B0947,
FD5900B90E95088700E4F4A3F454FD51FDD3,
EA59F86EF7D4FD22FC51E520EC2A05B5F7EE,
FFA8F20400EEF3C7F771F66BFADDFD36F8E1,
E6C906520433018BE660F1FCF3CFE6E5F2DE,
F703F18A1273FE7CEEEEF8FFFC60098FF9F1,
F6A40FBB1A2FF41015DC0379EC62F25AFAA5,
F707FA5BF9840290FAE8FDB7EFCF04830726,
F62F0D4EFB2BF919075605F7F8400582FF12,
0CD3FE710A58F7390D0F0816ECFDFC770970,
0257FD59FE9BF25501F201310981FBADFF6C,
035FF4EFFA640359FF41FE75FA5507A0F8E5,
0A67FF30FFC80189038B0C8CF10E0103019E,
F76AF2F40819F59302B90039FBFF033F0761,
021F01E5008FF82CFDC9FFD9FF88FFCBFBDA,
F96AF8E6F32DFB0206B0FFCA152C0430F0C6,
F713FE4DED170628FBA605D1F9E0F73D080B,
ED86F3E514EB0C1B1C19028019D6F3CBE065,
02A8F670F5D904D9FF62FFCBFEE7FD1CFE71,
0FA901A70589FB7A0C760479F10BFE3BFE59,
FC1DF3E60128FEDEFCD402B9F1C5F7DFFACD,
F9C30784FECA0574F6E3F2D8F313025AFFF4,
0AF8F914064DF9E9FF45FE3DFB87E639F36D,
0AA307280292FE8AFAA902CAFF14FF2F0CF0,
F66F0D3B1752FA0AFFB3FC72092710D50D16,
F2E60251FE3BF7310AB9FB5A0266F6B1FA1B,
FF69FD1BFD5EFF50FE03F420F917F668FBB6,
F70F03CFFC84F63503410205FC6C03FAED90,
EE62F9ACF969FA54F95CF390F39BFB0EF520,
FD490116088EFF7E0056FAFC018D03E3FB78,
0A66FE34F3F4FFAC071202840548F9880D67,
F9D40FC70DB1FC4805A2FBF5EEFD02C6091C,
FAC6FC31FA1FF8C6FE0707B5F98CF074FBE8,
FC63F57CFFB90076F3B80CD60572FCF3FB2D,
F91B0AC00229F7E5ED550079F89D0028F9B2,
069DFA26FCE1033D019DFED8FD9FFAD40749,
FBEEF5FAF74D00CC07B102E2F6C9E809047E,
0415FE4709BF01D50775F63AE808F036FD0D,
FE09FF0CF295F429FFECF30A047C0A830695,
0E4B027F01FB052800AF03F70973F7A3F880,
F80AF8F8F76F0655FC30FD6605B5F8DBF713,
084000C6F560086303970652FC940595F965,
FE72FBBA05DDFF21FA580585F820FE74031E,
0C6E037CF6BCF465FA27FE9CFED704F0121D,
FE1AFD5807D10601FAA8006FFCB7FB040251,
F880FBF7F99C0368FFBAFCDAFFAEFD3204DF,
FA2B000AFF21F86EFE8F0030FB10F6CBFA73,
0C53067EF9C50371FE7EFF8FF7080896FEE6,
0498F47E0F6BFA85F7DBFE71086B0C6608F3,
06DFF58B0509EDBEF22AFD6008BAF97208E9,
FFB3F758FD34F9F8F7ADF9740C36EB64EEC8,
00B2FCBA07AA034BF83EFEEFF7E9FEB8FBF8,
08F8FBE0032F04DA02840027042AFE7704E2,
072B047A063B018303E6FDC3F7BDFA0E0302,
F748FD8DF558F47C005C0D2B0751038701E5,
FBC7F86120150783FEFE0D60F47DFB16F3F6,
00F6084EFB8EF12BFF36F18A022BF9A7FC5B,
FC21F969FDA907DEF25AF5FB0463F23EEB43,
F441F2F30549FF09F41EFCC9FFBC0803F62D,
FB700E00FFBEFB68F85EF5A6ED9A02F80766,
0716FAE6FA0300A9FF21000DF656022EFE14,
F8C418B4F8FEFA04013E0074034202B2FC43,
FE9FF99CFF7D000301F0FBE0F743F78C0545;
