memory_initialization_radix=16;
memory_initialization_vector=
0089FCB9070F023200FF000BFA21025DF6C4,
0C55FA71FCD307C10227FBCB01AC0959FF63,
FC7D0111F79AEDCF07110A02F735FFB0FDF6,
F358FAC4FF17F62FF49CFB2FFFFD04EB0A65,
FB9EF4C1002EF3CFF39D03B008DF018BFC6C,
E653F7CFFFC8FF0A0000FE24FE70017CF819,
F9F0FA00020FFBD3FAC9FB1E015E0493FAAB,
00A0FB57D0A0034EF99AD752021FF89CE3C8,
FCE5FEDEFC78FA3606E2FB5EFE8E045601D7,
FD16FAB5F933F53604F8FD21F69D04D00442,
0239F425FC3704420668F829EFAE0379F3F1,
0BF8F20AFFDCF56A0272008BFF66FE17F74D,
FA72000FF66402F108CCFCB0FDE2014500DB,
0BABFA70017A0187FFF4F8690563FC16FC57,
FAC0FDAA01CB01D2FDE80042F3B1FFA7056E,
00900000FEEFFD8AF5D8FF25FE9AFF85F48B,
F085FB57F72FFF7E02A0F18DF6F7EF77EEEC,
F724F788FB13FDDE07380465FC72F903FE58,
E44F0E01063B0846009EED07F0C5EB3BF919,
FE9BF8F9FE1604BEF5B607030ED0FC1AFAE7,
FB43F7B7F908FF01F795F3D109FFF9C0FC65,
F638F93104C300B5F5850AA800BEF786F1F0,
05730005FD9E070201F409A905FD047309E7,
F5BE020E0439F86902A2FFE6F7E1F84BF358,
0618F4160349FDADF65306E80024FFFCFE6A,
FCF8FDE9F4E8047909AEF70DF5F7F2ADFF4A,
FF640B85F65DFD4A04820083F41D055C0859,
FEAE01680255FE4BFE88F85C0D3802AD03B2,
F1E8F7C9F8DCFC3BF40DFF19FC6AF8E3FFBD,
EFE40731FCC10163FA32054AF17507F1F471,
088DFBF0FED2FACB02EDFA97F404F9F702F5,
FCB80A5BF63D044502FCFA93F9A40588FB0D,
FB3300D8046E0B32FB3E02B601BF002AEEE1,
F8ACF90CF7F3FAA80A850ACB00E50834FBEE,
0697099FF566FA13FFCBF2AF0531F5920426,
0965FB50FDCAF826F010FA540BA50695F763,
F8C8F50D02F8FB21074D025D02E7F3C5F8CB,
0267ED45EE86042E0A500532F164EFE0FD5E,
FB15F6A4033AFE03F8F4FE61044804C70C19,
0299F7100774F074FE870A79015A0916F846,
065CFAC902A5E9F5091A009FFDC4FB69FFC4,
032E04A5FF0404E8050CF959F9B6FA16FB55,
FE62F1D4E973F6BF05770B67FD20F6950075,
F940F5A4FCB1071AF4B80715F077EED0F324,
F00CFF19F93D0A19F743095BFD9DFF3605AD,
0413FBCE0546FB1104A5FCC1033BF8F6FD7D,
F72F034B061AF1060BC30399F82BFF75FB25,
020B000CFB44FE670262FE53FE350B92F623,
FA2A0557F38605A3F47DFD5204BD0248F04F,
012B0059F5B6EB32F0CBFEA2FDBA05D3FE2D,
F6E407E3FA65F9B6FBC4FF5CFFD6EFA9FB07,
0B1501A2FFBB0255FA5CFCF50245FCCEEF85,
0028FB4CF48FFD85058C058F0497FDB804A5,
FCD806B2FC9201F703730AB7F6C8FD79032C,
FC78084C0B2DF697F4AD00CD03B9FE53F636,
FD97FE8FF9EE04ED07B3FDD501D9F32AF911,
01B6F92BFBC60968F90C031BF9AAF7540BF0,
F42800D1046C00250087FB150191FF730563,
FFE80310F8BDFD09F29CFF0C01D3FFCDFAC4,
FBA206C5FAAFF47D041FF841030BF5BE0536,
FDCD0D50FD11F506F19F0227FF3E04860234,
059E061DFEDDFC9E03C0FB4BFEFB070BEC5E,
EC3F06480610FC3F0279F70D04B7F5B6FE7B,
06E403E6092EF050FC5BF9B3FBFCF9BD0C22;
