memory_initialization_radix=16;
memory_initialization_vector=
ED22FBD70871060705390FAFFEA1F377F00B,
F53E06860222FFC900600347FDBA002AFFB1,
000703E2F9AE012D05F6FE770425FB230974,
F7AE03C20686FE87FD95FE71054D0076044E,
014EF984082507CA03840CBA09AAF7A80922,
FE050AA6F0C40000000000DEFD90FCE10000,
F8CDF25AF08A02BFFD06FC7309B0F29E053D,
0018054C06F0FF6CFF03FFE8FFE200000000,
FE800070FA0EFF3CFEA9079902B2FF130421,
F84DF92FF9D303AA001B0B63FDA9FBC7040D,
FEC2F61706C0FD6CF6A1F29A07FC07FA02FA,
FCEBFEE00116000000000000000000000000,
F9C108D5F9DFF7A101ADFFD103D5FB06018C,
FCE001300166FF47FFE20153FBF102CA02AD,
0AF4FB7AF901EC54E82101F0F6A906C20719,
000000000000000000000000000000000000,
0000003B0553008E001AFEAE00E8FFDA02F6,
FD3704FAF742EEE8025A04F10202FD73FFF4,
F8CDFE1EFDB4FBADFF59FE52FEAA03EAFE6F,
FF4AF6F2FED5050706B506C2F534F97A0000,
F70CFCEDFE09004AF1391B020039FAE51331,
FFC200BB0D66FDC101480B37FADFF13AEB6F,
FFEFF6D1FD78000DFA7FFA79FE880381FD71,
0160FD85FE8B0679F9E3FE51038706E1F8D1,
067103050945FD2DF726FD45F6910081FA96,
0ECD0616000500000000002612A4FCB8F587,
00000000FFEF00000043F658FE88F35BF96B,
FFF800000000FFBFFCF005C2FD4B032B0508,
FDC20A140BFAFB75F245F377EEFB009CFB5A,
031F086807ADFE98F7FE0417023509C3FA60,
F7BD0D3CF77103D2FC9C0AB6FC8BFDA8FFCF,
08BDF62EF2630E9BF49BFD481055FFF90238,
00C70541027CF7390000FA15000000080001,
09ED04FFFF20EE80FEFEF455FDD6FB3CFD98,
FD5301460257FF7EFDDDFA860213015AFDE4,
F82EF89201CDFE55F47E0249076504E5F579,
00000000FED402AFFEDFFAE8028EFA1C0267,
F0CA01E8F87B17561EA2F7132E25FE27F77B,
09D80191F806FE77008BFDF6FFBAFBE8F689,
F57FFF98FFED03E7FA2CFC05FED9FE85FFB8,
FC44EBD80AABFCBEFD24FE76FF08FEB30000,
FCFD02A0FE7804F0FEC8F3F904C4FC5DFCF7,
FD68008F0344FF36005CF6D7FFC0000000E5,
F657FA9A004C06E6F4DDFB4307E3FC0EFEFF,
04350222FC89FDE4FCF001EE038DFDCB045D,
08CBFEB7F7D6030EF44901560371FF79FB61,
01CA0598F99FFAEE00D700E508E4FFBB0176,
FEBCFC340113FA8E0431034CFD6BFF59FF02,
042D0637FB1900E1001AFF990514FFB9FA10,
065701770AECFFCEFFEAFC5C008C0695FE51,
F69BFC88FDA10767F8B401E7027BF83AFA46,
EFE2FFF2000000D500000000FFE600000000,
016E0125FA80FC65F483F415F517FE9FFED8,
03AC029AF6A6F66D04D7FA65090D078FFD8C,
06D6F8F4FDF2F193FE3202270413F88E035C,
0B26FFB0008D040FFE09042A024F035EFA23,
085A0C48FB24F201014801B704E4FE43FCD0,
070FECBBF49F0B25F89C12660AFC0317F506,
FCCCF4FDECF2FC8DF7B2F738FDB1FDC307F6,
0138FB54FB32FDFB000000A500000000FF8C,
FBCDF546FD9FFDBFFEDC0000051AFFFC0000,
00000000000000780000FFDA011B0003FF51,
F51904BF05310209FDFCF9CD0104043300DE,
0165FAAA02800526039E063B036B04A80083;
