memory_initialization_radix=16;
memory_initialization_vector=
0E83F69AF85705E50418F920F8570081F7AC,
EDFB09E0FFD20629F2C603BB0560024507E7,
0A82FB7CF24DF4710B28F34E0E6EF4FCF671,
FA120F53F1D1F7F806CEF51904440D52FBB7,
0B0706CB07F5FD1E03B2044DF3CFEA55F6A6,
047A062BEEB200B4FF6B001EF314001F03E9,
0675FADE0EAD062209F90191F42D068407F9,
FEFDF9C709C7F2CA08C3FEF4FC9DF63B0D4E,
08850C3CE8F6F2ADECEA03BA00B80BFCF1F2,
031DF6C8F7FFF33BEE4E0013037800F10255,
FC03EF3004480616F786F2A0F0EF00A6F9A5,
0041F6640A6D09ADF919FBDCFF55121DFB44,
02D303DB0D10F59B01FBFCD90038000000AC,
EA4805B1EC83F5F6FDBA01E20178F115FCAC,
F7C4F134FC74F58CF58600580363F763F9E5,
F15DF1CE07BB058D065C0AED046F02C904C2,
01C7016FF922F069FDD10CA4F49DFA450B73,
04E3065CF6EF0475F157FDF3F34FFED60AA9,
FB970973F149029A07CC0346F126F519F65A,
FC53F4BFEC850C68F1BBEF470EA10B1DF813,
004FF708FC0AF2250A41018AF6080E0F0A8B,
083B04E8049FF3DE006FFD4C022FFB47FDEC,
F508034BF33404C5F7590A8BED8501DD10DA,
048105F7EF81EF1D0C06F070F709082A10C4,
0B7A08CD02E6F2950441FCCEF731FBF4F007,
F2D00D0A0EA9EB410DD2F99D032200F3001D,
EF050120062D0890F8F20232FFE2F36CEDD6,
09E8F505F96E08A10741F32904DDFA500F47,
FDB90CA5EFF8F1CB09290195F8FFFC1302E9,
1699F2F4069FEA20F64DF7780C92019BFFD9,
F89608C405BCF471022800790540F994F4DF,
F3CFFFC7FFE2FEB1FCD5F8F0F763F6FA08E8;
