memory_initialization_radix=16;
memory_initialization_vector=
FD8DFCE902790524F821003EF652095CFF42,
F845FCF10047F86EE95100A6037BF6A0FB56,
FC4D0675027E0221FF4E0322FA45FA5908ED,
FB48FFC9F348F73F041FF9C905AC083306E1,
F801F7D4F9F7FC8BFF24F823F86DFAC906F3,
EE28FF4FF611FBEFFCFFFB65FE61F91B06D1,
FC1DFDD40A2E02D800C0045AFB70FCEBF893,
F3FDF8740735E5DBFE87EFF6E46B056E05BD,
F869F9B2F574F71206B7FDD9050EF46A0617,
051E0039040AF0FC0285FCCB046204C20199,
F9130129009CF2E50337F883FAC7F52B0996,
1756FD1FFB5DFBC8FBE400CCEA14020EF915,
FD8FE8D7F661FE74F7E8F54D06750040041F,
F3C4F93A0948004602ED046BF4BC0956F9FF,
F77CFC27FBBAF76AF4D9FF4CFE2B02100B2D,
0000FC66F580F1EFF8BFFD750155F8E9FCF4,
F3D8F6EA07B708D7F68EFDABFD5FEEAB0055,
03650326013FF4900515FAC3084DFDFB018C,
007DF9EDFB6F0AB90239E31EFD08F65CEE76,
F4020930F565F46DF610FA58F4EBF2A0EE00,
02850232FD63F543F8EEF2F6FBB0F165E673,
04E9FBF3F4FC0905FF020631F777F6E80646,
F3F4014EFB0CFD3A0104FCE8023204BEF822,
FBB607320073FF1DF9BEF52C097EFF39FFFD,
00270586F3B2FEA4024C02330453FD4D0493,
F1B3F074F8470C410351FB4F001FFF6CF659,
F4E8F8E1059407640A6A0C9FFC81FEFCFE29,
0603F8FA0489F7FF07EA04800249FB73FE50,
02F80808FE1505D3026E0886054BF1D6F5AB,
01D9FE84F883F38D01B4F436016E0255062A,
07190322FFEEF8F2FF95FE40F750FA18FA11,
FEAFFD1302E0FD8901EAF3BFF793F0230E42,
FD4DF37F0979F2F0028CF89F05DA063DFCC4,
0612EF90043E0727F2ECFC4C078EF537F276,
0161FBA7FD03FDE3FBFDFB65FB8EFED4FDB4,
FBA902860C26F753FAD50909F4DE045BF23A,
F955F757054AFE7D028BF8A101CCF3C30910,
FF3AFF2FFB3E052C03E3E6B1F3A9ECF5EDDF,
F6B5089D0A15F572065DF695EC74F607F521,
FE82090DF5F003EBFC6CFCED0753F64CF101,
063CF8BEFB6AFB64FE14F7E4F2D00568F81F,
0B2407F7057806DE0278F8D4FAA5064A01E1,
FDEFF54EFD13FF2A00D00C26FEB20531FCF8,
FAD8FC8603DBF8B501FFF31307E8FE42F852,
F902F8FBF9FCF98D039305B0F1CE01CEF3AB,
0410F705F381FAAF04D906C703730229F22C,
FBA0F515FE12FFD5FA6BF670FFBC037300EB,
FAD7061D01B60AD00283F5D80AB9F98AFBC9,
F87FFD9E006E06EFF8B2F58DF6EF077BFDAC,
F697F80D02F6F4B9FA9D04C8F569FBE0F8D2,
097BFAB90584F87B068F02E6FFBCF61A054D,
FB24FB66F817013BFE46FC55F703FEDA01FB,
060406E403110281F921F936FC82053EFF2B,
06ABFD07090E0692074C043EFF9DFFC40804,
FD04F0D5FF7E0751028202320451F377F46E,
F14D03B9FFEDFDF5039AFFAC054AFF7EFDD8,
0834F562FCECF647EED1FCF6FA860917FFBC,
0858053C0163058DFAE0F055FCC9FCE0EFB9,
F639ECC6FBB4042F06BA05EA00D3F8F0FA35,
F675F8A5FD47F2C5FDDBF9D0F324FD7EFE1D,
0198F9C9FFE708C20062FF42FF29F651FED8,
0717FF600530055CF964F848FEEEF9BEFD32,
F5A4F424F8BFFB5801E9FF61FB85084A071E,
FF67F9CBF667F5DFE74803ACF381FD2CEA6B;
