memory_initialization_radix=16;
memory_initialization_vector=
EB78049BF1C20BF8EEE3F1F3FADAE415F1AC,
03D5E632FCECFD5FF5C803820C5109440891,
FB8006C500C5027C08BF1501F672096EF7B1,
F55EFE03FD50FDC1FF1801D7FBA204E4FA26,
F1B407DFF5E303FD072B07A3052400420055,
FF00F3A303A9000601ACF8560000FB98FB8A,
FB6901070920FEF0F9480BB6FA03F81B0321,
F82A020901DFF4FAFC9BF6F206C3FED0E525,
06AF0B730299F996FCC6F422F6BC00410073,
F8F8096202BF01FBFDFEFA43FBAEF9F60CAF,
FA62FAF20495FAC4F9B4FA49021FF62604D5,
F537FFA6F92EFF9900000000000000000000,
F99AF71EEA28F9D80326F6E902D8F72CFA7E,
064A04A8F93DF565FF59029EFE12FECDF8E8,
0532EF05114805DCF923FE33091C02F4FB10,
FF7C0000FFC7FC5900000000000000000000,
01860FD613C9E9F20004FD360F6C0A45F75C,
FFF805710614F7880ABA0C34FCD201F00444,
FC97FBB90861037FFEB809F3FFEBF02B0497,
07D3F3AFF94C094A03E3F9FA05F0EBCE0348,
F601FBF9FC45FFB3E931095BF3C2F495F58E,
F86508930C5DF9C8025F0603EC3B0736FFD8,
0BCAF85DF08B08A4FA900FD4FCC808B10404,
FC390281053AE6DDF982EF76FFA8033B0056,
F2F9F835069201DB099EFBA503BB034E10D8,
FA9E0D05062BFE3AFC61FD96FEA2F762FA19,
E8B3033CF8AAFD290C4AFEED0930097EFDCE,
FFE1FFFCFFFD059F05A0FB5D0457F6D2FD6A,
EE4303F4F9EB0B1CFA680478FEB902B1F363,
0390FA3C0172F467FB2F099E01DC02A507A0,
0A0A07500BB8002302D9FA6101C501D7F8C6,
0B74FFB4057C03BEF55304CC09C0F9DC0000,
005603A102B4F3B01119FCA5FFB5FFFEF997,
0C71FEDEF0CEF8E3FB6FF6D4F35106C507E8,
FCAA00C2EF9AF4500607017CFF8007E4009C,
FDF6F26306460534F94BFFD80B7FFFD90117,
FF8AFE96F101FFC5F9A9FFD0028C03A901EB,
00710502E536FB4E1A0B16BDF073FF6C058D,
FF05F87FFC8C0B8F032EFEE0FBA8F8BF0111,
F34CF7740411E987008FF727E8F2F6B10B9D,
0515095DE99B073EE843F7EE06640235FF28,
016D0CF901860498FF7207D60217FD7004D4,
F702055CFEEEF68FFEF602831781FC8BF641,
F502FBFAFE84F9CAF3F6FE79F8830899019F,
0051FCBEFF9602DC011AFE00049108C702BC,
FF330331FF24F5390FDC0126022FF7BBF873,
0293FCACFEAC009104DCF673F8BFF33700C9,
EA110188FF6AF8D10596F763F46DFD75F7AE,
FDB6F63803FCF9AF02FBFB87034520BF01C0,
00CCFA6DFAEFFF09FAFEFBF40124FB16EAD9,
FDF805900617039AFC04FCC2F2D1FB67EFC6,
0527F657FCC9044201840000F1D400000001,
0422FE5C0968022002CB0527FD8BFD90057E,
04C6FBFF00A2FF35FB13061CFE6A03B7FBC8,
0E12F38FF3BFFBAAFDBBFCFF1014F1E8FD31,
0058FD9CFCEDFCF2F7DF0039FE1DFE4A0143,
F120189317BBFCFEEB44005A095DF7C90314,
FD21E8AAFC1904C8F49CF208F7F7F1CEDFA5,
FA8CFF1EF468072B23D70B850EFA188817EB,
FFD7FF1400A6F0D5FB1704FB0000FA740148,
F9C6FA07FF59015B07F90000FDE9FC010000,
0000FE5EFBC4FFBB006DF8F602DBFF9F06D6,
F1B3F9F50E7CFDEF045BF60D0277054A0739,
F443082C0182FC01F5DDE4E800C01011EEDC;
