memory_initialization_radix=16;
memory_initialization_vector=
072C05BF0389EEF1EDAD08A40468FFC60BB5,
045AF97C0A8DF5AFF18FFE7F096A08A503A8,
FF0600C5FEFD08F1FAAA055B0296F756F802,
FCBF053CFE91FFC9F1F9FA34FFDFF402F545,
022BFE0AEFEE06390B7FF390FDCAFA27056C,
ED55EE26074BF608FA0702E9F8F2FED1F78C,
017302CA00FBFFC2056DFAEEF551FC59ED76,
03F6D6060941F9B3F815FD4FF2AF09920428,
FA1BF43B00E601E2F5AF0749055F034BFE5E,
FD51098D07FA00C0FF2F0867FF6EFBE6F6C1,
01B5F8B80519F850FCE70379037AF53D0603,
EBC1FF87F88E0298022EFEFBFBE2FE26F9EF,
00D105C8F6F1FA63087DF804FF020058F689,
F5F103C2F99A050EF8FA0DDBFF67F6900DB1,
F888E18CFF6CF9F207BEE99F05FFFD340520,
FD67FCDAF32D0585F9A5FD7CF494FD8CF943,
04D0FDB3FC20045B00CDEEBB0C0301D20186,
0418FF5103A50380FE48FE4E039A0289F38F,
EC5CE2CBF68C10C100BF00F4FCF00372F8AA,
F682F66FF82EF94CF0E10930F44FFBD2EFCB,
07260054FB8A0439F89AED84FBB6E938F3E8,
0B37FDB7068903C403CAF72607F902FC05E9,
F9140427F8E806C307CC00FA011C0199F45F,
FAE1F82FFF15F62703F303B4FA3CFCC60135,
FD29F5BE03A005370274FEDF053FF6160144,
F035F9C7FEBE07C60811FFC8FCBA05C6FD27,
F667F3EBF916FBF002CD0996FB1304E600BF,
FDB5FB17FADE01D4FA00F502FB0FFF0BFDB5,
FEC1F7C6F6F6FD7F030B099BF576020E06E7,
03E1052C06CAF46DFBDF0145F7B507DFFC73,
F92F0051FD9105F60832027B049CF71EFE76,
0504F74BF937FB5A053DFB89F55AECCCF1BA,
EDB3F9A007D0F128047C0026F0ECFEA2F9C6,
01AE07F8FEA6059E0254009006B1F57A0794,
F26E008804720590F2BAF380FAA3066CF8D1,
FE2BFF980500FF910288006B008EF951045C,
F394FE0C0376F5FDED41F5F1F98DFA93FB2D,
07171C3F0339F3CC02760EFDF091FAB9FE76,
04B5FB8C0859F88CFAA7F713F54A01D7FB79,
037E009E070D0B57F9930A6508950308FCB6,
F808F2FFF3F306EDF1B0F1C60305068DF6D1,
F9B6FC26F32EFA62FA01FC7A09FC0999FCA1,
0430F6410625FEF001F3018E099B051B04C0,
00920705F7E1075DFFC80033F802F99CF5CA,
F315FE19028EFEC1F8DE063E016C04EC036F,
07CDFAC70BB8022AF5D907C0FC05FECAF1DC,
0905FCAC08DCFE0CF84DFB4605FAFD1400AA,
FC32FC7B018DFDEA0942FA32E878079D0D76,
F82BFCB2FE0E09AB0027FAFD078CFD09FF51,
F7FDF811FD670002ED5C0182FB8E0153013D,
086CF2A5F882F971F788F521FDE5F86AF5DB,
09220474FC9EFB78F80501A5F697F4450115,
F9B601BEFAE9FA9C04B9FA16F4F3FE74FACF,
0340071AFD92FC27FBA00555028F08B004E1,
0309F853FAF5040E08E0FCE9F573050EFFA5,
FF0D0218F72F0B96F8CCFFCDFC5201E1FDCE,
F7EE058C0DF40208FE1F01510303FC4EF7A8,
082506A1F7EDFFC6FE2B09E8F4A1F8300385,
E9DF0C25F95206ED0184F4A6F2A7FC31F9DA,
F651F9BBFE57F837F9A7FFC60493FDC605F3,
00DCFAB6FFE70584FD5B0059FB14F9E90352,
FAAA03BB039E0139041D0797EEE2F510F931,
FBAEF914F88D04080BCDFE99068BFED202D1,
FA16F9E6097CF2E40776F4C400B5FAC6E98C;
