memory_initialization_radix=16;
memory_initialization_vector=
01A4EF2EFEF9F515F935E9D30913FEE1095C,
0A000497FD8403150856FF7704AF058307E4,
FDEDF394F0F609C4F8DCFE5306490696FA4E,
00EC055D069EFF00FC4600130237FF870754,
F9D4F6EC010EEE0212AE07C302AFF7A7F3E9,
0841F713F5ED0000ECDC0C3AFF080765FE47,
0EB4006F091CF7A0FC2B0DB2F86FF9D6FC1F,
F68CE394B85CFD59FF53E073FD5DF446F6F3,
F3CB03D2FAE40A8B016BFEB605D2FC0B018F,
F38DF9F7F9EAF88F04FEFEF200BDFF5F078D,
07A5013A09A7F62E0CDBF47B074FFC000037,
014DFEC9015FFA27FE11FCE200B10421F3D0,
082CFE78FB70FFA1FE1307A8FA0806A90760,
F6FEFC65FA85FE01026E03560BDAF08BE808,
14A0FD92F88AED54F84BFF9D0261012AFCC3,
FD350000FE1EFD47FA4FFE11033D07EBE301,
04C2FEC30D8BFC56031404D4FB0400F7ECE7,
0815066B0EB9052A0A2EF96BFD83F91AFC2D,
EE6F0109144E0ED5072AECA6FB8DDF230428,
03DEF342F89D0E250443EF000A2106CDF2C2,
047406D101A1FD1804D31AA5F975F46809BE,
055E0308FC150A7E04F6FC41F80FF1C4F3AD,
0D13F81D08E9F5C607DCFE24038701D3F789,
FE5003C9F70EF0130003F1BF01C3E25403BC,
06ABFD55FCB8F6EEFB42FAC5FBBB05210CA4,
F6600D1FE700043103F8F4A8FDBD0195FAC1,
FDA5FEE2FF3AF3D009E1FF33F69D012A08EF,
FD82FFFEFA7D0366FDF5001F09B4FB370AA8,
05E8043BF6EAF8A3F60E0092F93EFDCEF124,
FE65FA13F6B7FB920516F4E5078AF77FF3E2,
030905BFFCC0FBC40069F6D1F9C8FA010634,
F86EF99504E0F4B90A1C002CFB7CFE6309FE,
F875FE10FB0D0A050B42F30CED310AABF83E,
F6730741F235F83EFFF50093FD860416F25C,
0124FC50FB0405AAFFD905FDF253F701027C,
FB87FFDF0655FD27F81D07FCF832F9300713,
0094F9260196DE46F2D20B70FD25FAC70D65,
0617EA7CFCD0F097FD5DF7F3EA4DEDF50262,
FC60F55B01DBFEB005DA1440F4A609C10840,
F5E4FD34F6D0F5F8F651FC8DF5C4070F0014,
0B34FD6FFE71FC970A07F7A7F257F7A409E0,
02FC0C79F7E3FCB7F92B0588F860F355FCB9,
06C2F8950070FE2B019B063CF6DDFA4100CC,
F5B7010914E7F20E04B7FC3DF94DEBEFFB1D,
FB32EB1BF4AB09E0FC2DF94902C1FBFB094E,
03FC007904B4076FF5F9071E063D070D0672,
046707800E880230FB38FDF9FFC5E6D2F525,
068F076E0290058C0239F061FCBB07B704B4,
FB2AF8CAFE17FE19F544044EFAFAFBCEF5BE,
F5C608FE0CE7DCCFFE330029FC1EFD3D08F5,
F112F4D1EDF80DCDEF0DEB0F05D8E8CFF964,
043200B3FF70F3DAFAC00000EFD302BFE3B3,
03B6095E095B04D8FB00012EFAD8FC3EEF7E,
FE90041FFFC3FFBBF7F407D9FCBCFA8CF878,
F623F8E30EB4FBF9FB3DF6A10400FBB4F4AC,
F23AF522F668072CFDA40CC9FBDAFFE4F0AD,
008C0C04EF3AF81DFBAAE355F90FFC76FF84,
F33BFB8DF7ABFDFEFB5B0004FC9AF0290314,
05E3008E01140A690DECF32E063C03D1F548,
E439F836026A0763FC250208092DFD4709D2,
FF04FC57FFF6FF3203C9FEEEF711FA7501AA,
073AF8BC01D1FD77FABAFDE8FEE10AECF55D,
00A8F196F6C8F99EFE83F4AF00AFFE93FAAF,
004CE619065BF698025FF2C3FFD90606F636;
