memory_initialization_radix=16;
memory_initialization_vector=
F69E,
FEB7,
FED7,
FB07,
FC4E,
FF2B,
FC5E,
FFB7,
FCAB,
FE67,
FF3A,
FC72,
FE2D,
FD03,
FC70,
FCF4,
FCF0,
FD78,
FC9D,
FE10,
F77C,
FD42,
FDEB,
FCED,
FE8A,
FC38,
FE51,
F9E2,
FE53,
FD81,
FDB4,
FD4D,
FD10,
FDC9,
FE88,
FE67,
FD78,
FB54,
FDA8,
FE49,
FC74,
FF8E,
FD80,
FD3A,
FD8D,
FEBA,
FE82,
FCF1,
FD66,
FEB3,
FF1E,
FD36,
FE37,
FE99,
FCC0,
FC22,
FD34,
FDAE,
FB45,
FE02,
FA5D,
FDD4,
F85F,
FF8C;