memory_initialization_radix=16;
memory_initialization_vector=
FEBBF2EF044DF695FD87020401B9FA5DF7A9,
0B9FFA3AF9A3053106C7F56B05CB0B4E02AB,
07D6FD130B1AF22BFB020477F302EF560A6C,
F820FF47FC3CF6FEF877F1E806590B96F69E,
FF76061DF0D9032604D2F9CC0369FDCE0E45,
0A0A0A65FB67FC970571F60A048DFF7307E8,
0750FFFDF8FFFE0DF666FDB0FE98FE05FFCF,
F95A111700FDF11000C3ED6CF259C07CFD02,
072CF9BDFC35FE6C03F405E0FDD300F4F91E,
FB4E0871FE4DF7D1096FFE3CFB2A001101FA,
F42B01AE09BE0418FA4BFF2007B9FD77FB74,
F725FBF9FAC10111FD96FC960ACD02F2FEF2,
FACCF9E7F580029F0160035500E1FD00FC68,
F4F4FAAC025EF960FC6CFD31FDFB08EA0873,
0659FAC3FBAF0BEBFC72F8D8FA3302D6FE16,
02F6FFE7FFBC060C0314FFB1014E055AFA0E,
056CFBEE0A7606B5F2C9F9A9F6A001630DB4,
FC8EFB2AF987FCBA1222FADCF789FBD80897,
0FC9F7D10613F8C4FE9EF64A00B80388F24A,
F8D706B105D9F839F5E209060B70012F0D8A,
E6EBFA491517FA8511FCF4D6E9A90995F494,
FB72FAD9F7D4FFE1FE8CFC61FD69FB9E0003,
09E1009BFA670E0307D801CEF48E016AF9A3,
F7060926FCFC014BFD35014E0390F6F10E68,
0120F79BF952024207290D790938F971F69F,
0665F845F8C30D01F585098EF205034A08D4,
F5A0FF80059DFFBB0B21076408CE00F9FF2C,
FA550681FD2102F906DD05B9020600C30329,
01E7FEC80A2406CAF963FA2F039A050FF984,
027B04BD070C09A9077203D5F488F9B4F68B,
FBC0F8F1F8CAF6EDFBE102CEF6B4F69FF697,
FB40FE0DF802FD7DFAE7EF7605D4FF78EEA1,
01D606D9FAA90CCEFB6B09B60B74061301F9,
061BF5F7F4C100EC02B608DEF25EF91FFCEF,
FF20024DFF7DFA21FB6805AD0010F3DDF863,
046D06BB0854F99FFD37001CF827F6F7FC6C,
05A7FEABFE29F84FFB3E07C00321FAB6037C,
0329FDB415270902F2D7EB92F02603D402FD,
FCDB01F6FF3F07C708A50341F5BFFBB20619,
00DC01C3F28FFDA4FD19076CFAF10650F7A2,
024CFB29089CF69FFF2E00C2F87FFFDD0D6A,
FCA7F9530208FDF3F795FB61FA4D0DA2EB4C,
05E1F35DF02D04FE05F1FA95F695016103C4,
03F907E6059CFA2F049A03A1FCC800EEF9EC,
04E3FE17F83E099204840B7CF331F877084B,
F856044007EA06BEFDA9F1B2024705BF0D95,
F9EF0A90FE5DF942F715F6E9021EF721F650,
FCD60465FDBE02B1FB7003D00567F811FC7A,
013D05DBFB920678FC8EF782FACEFF7EF8B0,
0298FCF30740FDC1FD0DFE710461FF9E047D,
FEADFDA4FF75007DFBAE0650FAF40825F5E4,
06E1010DFA49F85BFCAD055307880821FFCF,
FB4C02A5F6E6F9ACFFDEF979060C0791025C,
FE1FFAB6F47B06C9FB09FA9A0426F91605BF,
F9A602EE01E4F6830781FFE7DC0700CA0724,
F5EDF7C9FD76FA90FDC9FF99029BFB63FE06,
F60CFDE2EC58F3F3FB30FC4EDDF7E10807C8,
0E370457FD63000E0048088E09EF04CE0872,
0A7309ABF7AF0C8E12C8E20A0212F615F7BF,
0775017D02020617005D0959016C04320533,
F580F634FDE7F72DFE90FA2BFFB5F57D0161,
07CD07CFF20B00BCF787F8B10481FD5DF553,
EAB3FCEDFD8DF7BD0301F853024A00820367,
F9B31473E2B3FEF6F4E112AAF875FC5701F8;
