memory_initialization_radix=16;
memory_initialization_vector=
19970F3211FDFFC1FE602273F9B0000714ED,
F4AEF970FD16FF2BFAC2FF48FF7AFF0B0327,
FBF5FC071B30F9E5044203E6E7F605AA0707,
0508F827F8A0019F07A3F75A0676FB11054A,
F643F557FCB2066A03DCFBBCFE1EF4B1041C,
03AEFC2EFC370000FE8A0236FB17FA000C32,
EEEF01A2F73EF040FD97FCAC068B08BC0232,
0322F615F32A070B1BBA0856FC8A06791B4B,
F4BDF8F1FD00FCB70737FA7002B0F929FE3B,
FC3AFD6FFFDB021FFAA0F910FAE8FA70FFCC,
039EF91102B10488FF3707410401F1A5FC10,
E9FCFD3F032E000000000000000000000000,
F77805D1FFEB00EBFE070571033604D6FD07,
03F8044AF77AF9280000075BFBD805870D05,
F133FC88F503E4BAF61BF80BF86A0287FC5F,
000000000000000000000000000000000000,
0000FE0CFD0300000002FE8203B3FDE70156,
FAFBF956F04D012B023CF62F043E0018F7C7,
092AFDAD043CF8E1FF55FFBCFE92FEFF020B,
FD5005D903AFFDC70927034D058AF8070000,
0C65021D0F7E1DA0FC7F289BFA5AFC241AB6,
FA7E01880174EE77F78EFBA0062C051A11F1,
0830F6B7FD79FE5BFA89F41D0608FA3F032D,
FCCBE7B8FAFAFDB4FA87F0D7FFA1FEB3F89F,
094D0675F2BD0735FE94FCBBF19808550650,
F948FB44FA8FFC1E040607AEFE6206380518,
FC47F99C0134EDAB0A56FFD8FF2F058BFB55,
FD4AFFFF0001055EFCE5FE5602D702E4F968,
F71E082AF2DAF7610114E3490798020CF6D4,
0BA5016BFFD9F9E7FC8AFDCAF905FED503E5,
0380056C00EE013503CCFFC0081D02B4FA01,
0709FFCBF14B1138F77AF8A6015DF810023B,
FE5200DB0AA6FA2C0000030DFEA1FF850113,
071E0345068708E300DEEEBC0D06F58AFB79,
F84FFEF3FEC0FBB4F313FBF8F852028EF8FF,
FADD074AFCC60430F9B504F8016503550098,
0000F5A1ECE20346FF26F476FF9CFC56FF37,
0AF2F80C138E10160C14EBEA069414C2FBFE,
FA1B05160883FD92FEE0FCA1F8CAFC62F9D4,
FDC0FC700A12010DFC27F563FE1D07B70CE3,
01DEF8F01268FAF9FCBA0394F903FA7E0044,
F7C5FFAE0565FDECF942FDE4FA02EDAEFC96,
F802FAF3F646FC95FA98FCD9012E0540001C,
F9CDF9A0F9CAFC17F9EB065AFFCE0139FA7B,
FAD3F5EFFBC902900549F99D053DFD3A017B,
F1BFFFFAE9BF05F3FC430CE7FFD0F9E7F7DC,
01450653FC7B049004F5FCEBFF89FFC0FCDB,
022200BFEFF804E3F840FD3AFA1CFFD009AF,
03DBFC82054DFFEDFE92F9EC0562FE100218,
02B300C2F48004B4FF76FB9AF588040E0819,
FD17FA2DF9E4048F05A2F5EA04FEED6AF79D,
0814FE4600000B35FFD80000F6ACFF4B0000,
F61BFAB80524060FFFF7F9A40547008D0749,
FC8AFB6FF88408D606220B5F02CBFCAB0D1D,
F6E1F6A903B00DDCF2F8FC9405B3FA9BFF97,
F601FD74F06C059806C2F7EF0D0AFCDBF583,
FB9C1730EFB1FCFE05F8F27705AFFC4C012F,
038EFC12FBE3F85BF7860C8C0680044F03F7,
EF1702FC0072ED9BE998EFA7F8DB0CA1F45C,
027E08F7F67C014C093000FE0000F27D0BBA,
1683FE39F94CFE49FEDC0000F407FF650345,
0000FE8CFC11FFF9FFF40028FB1200220D4A,
FE13EE0EE00E0152FC140EE3F747FFBD010B,
17EFDFABE9D9F8F70492107BF734045FE102;
