memory_initialization_radix=16;
memory_initialization_vector=
07E8FEE4FBF00F190051F3BBF9B60946F3C8,
F368F69B07F7040D05F2078C077D00FCF40B,
FA7506E3F545FB530024F90002FE008403E1,
FAB5F156FBDD009B050F113E0DE1F6ECFFE5,
0B2E0355FFF2F01FF311069300DA023CF374,
03D80C7909E0F3560B53F201F54EFC480384,
050B0A02FDA10B31090EF61108E2F60C104F,
036C09E510F6EFD9F1A30FDA0DACFDDCFF2A,
F809FBBFFE97F65800C9DE5608D8FDB50BEE,
F45F0D57FB760CE2FF5AFA3AFD6809B00B4E,
F3B6FCFB0BEEFF85FE68F4BCF2D20000083E,
FE2F0837003AF586EFEF0B32FC6EF8DFFC04,
F612F6CB0AD8FE3CFCCF02FCFA2AF76B0276,
0492FEF00A450914F329F8D00C62F340016F,
06CCFE86F0C7FAB901BBFBA8FCBFFAD508C4,
01AF0B81081506CCFED601AAF781F15308D6,
F4E1F41105D5FBF20B70F4C505B6EA2903B2,
0DE9F7E2042B06A706B401B8030808A3EDDB,
F3520C0FF426035C0822F65CFD0FF7C60F74,
EF330DBD12FC023EF5F0F56401C904F50F77,
07E20B9BFCC6055F0F940211F13A06FC0C0E,
0978129901DCF538F225F9EDF8E0FBA0FC4E,
09BDFFCEFC3DF3C10D7FFE1CE965F7FCF239,
08A609FCFFD30CC0050BFCF6FF07FC4CF9DB,
000F045BF901EE68F63F00F4EF20F6DC03B9,
E667042A0C7AFF400CA40860F7A10537FF08,
E33FED6CF044F8EDEC4508B4FFBAE6D9F68B,
0CB5F166EC8CFDEAF5A008E1F00AFD610472,
FE19F33106130AA9084EFF58F60CF5ED0774,
F2D0030D04670B73022F0A2C0DB505240A8E,
F6A8FDF1EEEDECADE21BF6FAFED2EFEB0159,
F93CF032FF3EFD07F2C70AB40069084DF228;
