memory_initialization_radix=16;
memory_initialization_vector=
FE9EF381019AFA4F0C0807BDF41FF7A5EBA8,
F7DFFBE2F7DFFC890A10036CF37D068B0E7B,
F5F00196F404F5500228FF08FFCA0C15FDB2,
EC6BF2D008ED024CF7A8F3C60EF6FBBA0958,
F919FC9D0F0FF69203E8FD7D0DB1F13FF94C,
F2AC0A9AFFDA0B13F803F05608A601CC0ACC,
0ACA084B0E44F6F4F999F35EFEDCF12A086C,
007EECD60D940493F2DFFFA5FFAFEDB20B4B,
FE9BFA980528EFF0F7760199FBEA105EEE84,
F3D108A2F1CB08530901FC30F432090EFDB3,
0A000235064A0C1EF498F049F7C4F8B3FF04,
F9CBF4870BC40C60F138F753FF60EFC9F159,
FCE0F4F803D1097FEE8AF4CDF78AF34AF112,
0765034C095F0CBF0AE307B6F62A072EFBF1,
EE76F64DF6D8FB7E015601920BF406E50B31,
FA100820F728FDD70BDF06B7F77304D10184,
FA3F00D3F248F94309B2F3E9021EF1810260,
FBB10511FED1FDA407AC07260401F23900C9,
F693F400F19FF8A902A4EC23045406BBEB0C,
F314F3FC0D2EF5F1FE41F4C30301F1C307C4,
FDC4F28A04B5F0CCF556F59EFA5D07E6FE62,
09C00579EDE4F31FFF24F4BE0358FC9AFA9B,
0A83F7B00A4AF29AF1ED04A8F760FE8602CE,
F5420BB3FA770230F0A304FFF7F60BA6F369,
0A2C0231FF41F2B708CFF1210190F3AEF9DE,
EEEC0707F5EAFEF9018B0800FB4C07A3F5D7,
019B0EFA0B01F426ED7408D3FFD5F590FE16,
FD81F2DC058DF9810BCC0466096AF4E0F3B8,
0C5EFFDAEF590F9DF40903C20B5BF12BF940,
ED8FF99DF8C005F0FF32096503AD08DBF54B,
006CEFD90EA102EA0D31FD5A03440207FAC8,
0B3A00DB0918F41703470C21ED6FFC55FEBE;
