memory_initialization_radix=16;
memory_initialization_vector=
1040069EF5600F1F02060B7FEFEFFAD116C5,
05CC0880FEAE0290F251FBAAF930F3D7F647,
0715FBED059CFD1C08F6076EF1C3FC00FE22,
FAF3FB8DFDD4048B0623F15E06C9FCC30136,
055D0556F712046D03AF0171FA5B0573FC88,
FFA8F5D8060D0000F342FBA6000005F7FA67,
06C9F613FD1DF3E1050A05E6008FF698F2E4,
FD6EF05C01B8F347F3B0F17A00000ACC10F6,
06E3FDED08BBFD200B970D4E0635FD0FFDE2,
06D7FB3AF7FD0195022AF8110233FE25FB9E,
0331FDD8FAE0FFBFF838FA98F621025BFE22,
0000000003C700000000003D000C0006FFD1,
F132F980F4CCFE0C00B100A9FFB3057AFFDC,
FDE00390EFBCFF6E0092F7FFFF73F620F5D8,
047A0061FDB507AEFDD0FFF1F9060244EF50,
00000000FFF4FFFCFFA400000009FDA10000,
FAABFD0AF370FDF9F6B6FE23FD690756FA54,
EEC10048FBAA018308F8FD2B002A00C6FF5A,
086C04A10351FA1700510A11F448FEB70057,
FBC302380284020AF7B2F202FFE7003EF8E1,
0259EDD4F59408DB0435FE00FB24F0A3051E,
0877FC52F540FE41FC72078005E00B5103DB,
0556F9DCFDDD0A8A0C63052A08D7042203D5,
039B0504004CFA9BFEE704220502F943FA54,
0BF0FA810409FB9CFD46FD14FE8602D90B8B,
FDBD01C90BA5FDEDFBDA03280E4CF22BFE1E,
026405DAFB1BEF14055B0AF8F85E01D8FBAD,
FA31FA840236FDD6FFAC0045FF6CFBBE04BC,
0744FDC4FC70F7D9067CF33BF3F4002E018B,
07100B67EE4D05B6FDEAF811FC1AF927FF9D,
FCA202F3FB42076EFCB2F40505ECFF630505,
02AE0526021206B9FFE7FE0DFF72FF36FFBE,
F86808850C88FFDD01A8F6D002FB00CE04EB,
E77EFFD3FE1EF68FFD7100CCFD81F5B202B3,
F94A087BF99AFC4AFE26FFDEF6D9FC56F93F,
0683013D0F1A087106E0FD6DF53006EAF1DD,
FB7C0471F475FD92F5AFF694FE12FD37FEDD,
F2D9FA95F145EF3A0B8CFCA8F0AA00E6FFB7,
FB24F4D201AB0678F960FC62F8CE0935013F,
04F6004A05FAFC36F784F53B049B04C60A2F,
027BEBA513A70B720C6901BB0051F23E00C3,
F8630673080DFAD4F9C9F3E7FB0BF7D60231,
05A910D506AAFC210F2DF43D0118FE2D0534,
F8DEFC8EFC7EEBCEFBC30404F938053701E9,
FF4FF78AF9D300AEF284F24AF7B402DDFAA4,
FFD5F8DFFDBCFC84F8FF0B0BF25CF8140684,
F843068904A8FAE702C9FCDE0036020CF837,
FFF400DF01DAFFE3FFCD08D9FD44FF8AF52D,
047201780483F99B014CFECBFCC5FA690657,
FB7902C2F5CBFF5BF752F978F78EEEE900BD,
05100492F7E10300FEB6EF9AFC72F458F10B,
FFA700000083FFDA0000FD8BFF90FFEC0395,
06E3042C00D0005302DAFAED0968F6C9EFCD,
F7EBFA5FFD4A05F100CEFB84FDE40533013D,
F6C7F90901A0DCD5FF9CFC90013A063E04F7,
0128003F003600A5051802F2FD3700990188,
F4A5FECBF0D5F73202B3FE4D0DB1142BF14F,
05240234FD76FEFAFBE600DFFD3DFE7D07F0,
E782EAE1033AF479FAEBF9A0FBB20821E8EE,
0C4F02D406EF05BA047506550000FD9B01FE,
000000000000000B00000000009D0009002C,
000706E7F601009B00EC08A0FFCAFEF2F7FA,
0337FA0EEB23FA9506FA0A05FBF2FE71F72E,
F680FDEB0C1BF6FDF371F63F00970B3D07B8;
