memory_initialization_radix=16;
memory_initialization_vector=
E9BE0C4105D0FDD3F70A0B22FA640454F81A,
05B6F4B7F92FF77307BF06B60A5EF7FFFDBA,
F78CF6BF0875FF87F7C6F6120280F8A7FC9D,
FC1D02B30772FED0FE29F295FDAE01CE077F,
FC3D05CAEB6100F9002BFAFE00F208AEFBCC,
FDD5015EFC58F4E9028713020440E83FF6DC,
F6730624F077047FFC8DFC980C7307800635,
0569FC72FC5D03C205A7FB03F4CD03EB0258,
F6E304BFFABAEDFC03C6F241F046F64CFCFD,
F537FF050348FEC8031304A8FCAD04A2FDD2,
FD8900CD06F0F3B5FA6BF654FEB503D6FDA6,
0C3EFDE2FB45F91DFCF9FC7402F1111302FB,
FA4709D5F79403490193FBE4021A0A32FDAE,
0774FF2AF4D805CEFE3DF946F01DFADF013F,
F5FAFD2403D4033BF852FF1101F3FDDDFE52,
FB7DFF5EFFEFF4CFF8D60000F4D90976EAFE,
F9990629067FFFBAF9B209A300180777F1F5,
01ADFC24F28DFC14FFEF08F1FD34F53607E5,
F8E7F4CDFB7AE4D1116B0E84043508A2F65F,
02A0040F04BBFBBDFD36FADC0950031EFCC9,
F65FF5C4F9BCE8BCFED20AC804DBEFF90230,
FCF50748FB64F8C90824083903A0F4590015,
FD7D00A0FF0EF23EFFC6F2DBF8F6FA6D0059,
F5BEF934ED8BEEA0074EFFA107B3EDFCF830,
0950FB3AF82E090BF81FFC4E069DFFE704EF,
F1ADFE6C044DF62803D4F93FFDD9FC240ED3,
F2E2F6D9F5EDFC11FA5BFBFDFFD4F9230879,
F9E3FDA4FE8FF64FFF910691FA72007EF2CC,
01C4F6F50683F233FEF6FB8B02A50312F092,
0A4DFB3903EF0808013A09B4FAF303B9F652,
F4A0FE18FCDBF8DEFFFE02D9055D04C70044,
05CA02ECF44C03400400FCF6F1DBF6400266,
078EEFC9F01FFA670BBC0EDDF7B00626014B,
021AF95EF2230039FA43F610028F01D902DB,
FFE0F64CFD03F5E9FD80F072FACD08170375,
FED8FBBEF842F1E5F20F02FBFB59FD1EFADB,
01A2019808F1EF17F99103EFF4400437F8F6,
F7FB0756F7DCE19205DE1596F04FE991F2F2,
027CFD83057DFB08F7BE0490F8ADFCBAFC0B,
F95A0386F33203EEF6C403A10255FFDCF7A4,
DF23F42414B60565FF1DF913F46FF848F77C,
FD8EFBCAF5D003BFFAFB0168FCD0F635F760,
F69FEA830B07F945EB89F23B05E6F180EDAF,
07F7089100BA006BFB2C011806F501C9F58F,
F14F0487F72FFAC8F341F6DC07430460FFD8,
FC8209DCF1E5F88AF7BE060DFE34045CF59C,
087BFEFAFAE20875F27AFBF5F86EFD780467,
0329FC98F60DFCFD0404F5E1F594F95E046F,
FE3AF27B011CF5430318FF4F0AE40541F9D6,
FD6EF7170701F9CFF0FEF39EFA5C033B076B,
F27109090864FD99F860F5EEF74CF1AC0236,
F47C06BEFDDEFE81FC69FF0B0447FB7EF27F,
03ECFB6F058F02450824FCBE01F2047500D0,
0A5C08230AC5005E01B90A1505220AFF09D3,
08A80177F691F576009DF978F82EFAD0FEE6,
0400015004C4059FF569043CF92CF9BDF4EA,
F43110560621039C01C5F97E0B60EE14F7E1,
FDE9043E0902FFB40085FC5BF2A1035501C6,
FCA0F224FBF40560F4D4FA8CFF51F79D02C4,
FE2100EAFE190673FD370E59FED0FA10F7BE,
045F001801E700A2F516FB4DFBCB03CDF745,
FFD5FF20F66B02C7F972F9D50117FBBF0733,
F5DBEF070522F73C06B5FB90F861F9BAFDC7,
01380631027EEF13FFE5F9DC071CF311FE71;
