memory_initialization_radix=16;
memory_initialization_vector=
F502FDD9F98FFAC80AA807770EB1013F0104,
023A07EF06B2F49FF7EE0826020B09F60531,
008708F8EE6C0C7B0701FDE80D20F3C2F94C,
F2A5013FF825F3AA0579F6B0FF270E1BFD0A,
0C2500340B7F0D16020E0DA70E340AF20E18,
F82608F601A4F94304F7F5800310F873F551,
04510F92FD36F9B6F896E7FCFB43F91607D6,
FB0CFF640740F96104B6FBA203CFFD1AE7A2,
0128EAD1EB9506E1FBA4DDA8F83F133FE64A,
FF6E019AFEB9F7C30D35FC8B04C2FD0E0969,
19A207C016DFFF88FBB3F979F5D6000AF6FD,
0B8A0E9900F6F5490B1707590644F307061F,
0304083AF79DF4DEFD3904220AD8F4EB176B,
FB37F09905590BBFFF950426FEB5FC05F21B,
0378003BF6F00ED20A22F2B0FE65EEC50A05,
F768F767FF20FBC5F6370A8914D4FDE602AA,
089CFF98F6D7F4FDF46500A6F1C2EC4C09CC,
F0DFF4AAF573F6DA0DE8F586FBE4ECA80BBA,
0DED029A06C9FB5E04150AE1F277F14302E3,
FC3D045B0F72FC02F4300128085AEF040A3B,
02C1F884FE3E073E014FFAA30C30FC84EDD6,
037C02C705A2006BFCC5FF38F6E2FFFF0000,
02C8EDA1FD90FC5E0182FB8AEB14FBECFC5A,
DC8A005C022DFAA7FD81F5C5EF1803CE0560,
055610550060F4320047ED43F6A60C07F9C5,
0EDC0696FA07F42610ECE727F74306CD070F,
E8A9FFA1E65501D1F48EE43AFC62FE08E6C2,
E3C8FD4CFBF3E5EE06900C1DF7D2FAF6FBC6,
040704A5ECB60770FF82F93F047900D101FA,
E64209830A800C38EECAFD17F542F466FBA5,
04310C76FF6AFD1C097BF56E06AC02F8FEEB,
0F1B0AC0FEC7FA110CC7EEA6F8BDF7A6F36F;
